bd81f7a6
3d282604
bdfeac99
3eb04992
3d12e00a
3e8e97b8
3d8c8b7c
bc1eae49
bd0fd8dc
3dca2fe7
be024861
3d4a5142
bea55e9b
bb21e227
be0490dc
be132105
bcad5ba8
bd590ac4
3c6026ef
3e844c3d
bdab6abc
3c1f1273
3c70cb13
3d9b5b39
3df344bb
bd5900c9
3dcf7ace
be6d09b3
3e041a72
bd9d4453
be89a7b1
bd4ee48c
bdce3974
3e57eea5
bd10ca04
bdc2d432
bd460b3a
bbdb7988
3e30159f
baf41337
3deae414
be7f54c1
bd0aa2aa
3d877772
3e389a4f
3d4a522b
3ca717c7
3cd17fa0
bdcb554e
3d845679
bd80098e
bcc1e8d9
3db690d5
3d03e164
3d112095
bcf65b99
bd5173d0
bdbc1472
3dd253e7
3dd11e04
3ce31c73
3c1df101
bd0f6c53
be453b4e
bcd45a88
3dd50a92
3e25f835
3d93e105
3e13cb6c
3d14e321
bd55156f
bda97a34
be60247e
bd9f16cd
be4b033e
bd43522f
bb21cdbb
bd9977df
3c797b32
3d69de5f
bea18d7f
3de355f9
bc6f1fa0
3dfe488d
3c94d19e
bd407a62
3e7cf9ed
3e0491d2
be4a0572
3e37ac38
3df03e0b
3c53fc16
3e00bfdd
3d342ade
3da214ed
bdf3c9ef
bdc813d8
3e1081b9
be412977
3d8508ea
