3c975888
bbba88b8
bd10e9ee
3c95c6e0
bd0dcb5b
bc848f67
bc2af04a
bcf7f8ee
bd106a3e
b9975800
bccbaa78
3ca14806
3c5566c0
bca115da
bce0426c
bcb1a405
3cad2baa
bb5c49e0
3d058815
3c893c1e
3cc3d4e8
3c032d80
3cd9b69a
bc24c53c
3ce8397a
3cb7d0d2
bc1442f8
bc7bc854
3b870868
3cab8eae
bb077e00
bb298c80
bc45e13c
bb9c329c
bba554b0
bb181e30
3d0442b9
bd11ad98
3b77d250
3b6b1d70
3cbdb5c0
bc300826
bcbb4d18
bcaac990
bd0c5df3
bb049620
bc6d4920
bc42c28a
3bbae378
bc8a46c5
3b566ab0
3cdb8122
bc8899d0
bc2fd96e
bce511c3
3d027d31
3b326e50
bc1df78e
bc3c62d2
bc27c1dc
bc5ff74e
3c1f67fc
3b9193a8
3cb496b8
bb33fa10
bcb3227e
bd04df6a
bcb01fc8
bb0c80f0
bcaca23a
bc3e305c
bd0197b5
3cef4972
bb95ad48
bd0f13a2
3c501dc8
bcde9058
bbd80e00
bbd3aedc
bcddb0e5
3c081f90
bca3598e
bc8c2633
3c9200ba
bc9880ba
bc14d82a
3b896768
bc9bdcd3
bc2fd1a6
3cec21fa
3cb4ab4e
ba9c7a40
bcf83d4a
3d0a2433
3c2135e0
bbe7679c
bcd68a08
3c8c0c08
3cb0f12e
bccd6193
3c0ae484
3bb2a978
3c8cac32
3baa16d0
bcc0d985
bc32b7aa
3be9f128
bcea2f3c
bcdf081c
bccb4703
3c0a3394
bcc98403
3cf1fe92
3ca4e146
3cda4b38
3cc504ae
3bdeb308
bc3c2492
3a0245c0
3cbdc9c6
3cc3de2e
3cc274d0
bcbeb805
bc99d0e7
3caf2b96
3b49b8e0
3b2087f0
bc08598e
bcf09213
3c1a3cb0
bd0f3d0f
3c262440
3c989a2e
3c4652c8
bced657e
bc5288fc
bca98d3c
3d0fa511
bba3d91c
bd001e88
bca89ea8
bd05bcb8
3c8f8b50
3c4489d0
3c093d20
3a916b60
3b91d980
3d0cc0d9
bce43805
3c204204
3cd9a6d0
bb6fa3d0
bcee1598
3c9f5fa2
bcbf5725
3d105a3b
3cb6e25a
bccf9d90
3c01d040
3ca5da06
3c5894d0
3d1147ef
3c7939e4
3cdb33ba
bc4da978
bd0f50b6
bcce9443
3d03cb9b
bccd6ae5
bc782506
bbfb0cdc
bb7923b0
bc0df098
bb5e1420
bc66daf8
3c7ff144
bd02e7a6
3cd33508
bcf5a181
bcd4cf6e
3b28f380
bc4b9e20
bc48ae60
bcdbdde8
3d018e2b
3b724000
399ff280
bb533800
bbeec948
bd0c7c57
bd0af060
3bfef708
bcab60e8
3cc51c9e
3cb0a1c0
3cfeeff2
3c807902
bd08808f
3c9da5f0
bc329a8e
bd0225a2
b985d300
3c386710
3b36cda0
3cc266a8
3c60e890
3c62a638
bc5ce2a0
bc9084fc
bcec5d78
3c52f224
3b77ea10
3d11564d
3ac40dc0
3b18bcf0
bc84fcf0
bd0ff1a7
3c9f45fe
3cd3e1aa
3af05600
3d019635
b94bb300
3ca937b0
3c2da2c4
3ce829c6
3c54f808
3cbe932a
3cc0446c
bc0e5aa4
bcad0a58
3c7e1620
3c10d018
3b36e260
bc47ea0a
3ccbc1c6
bc11750a
bc5ab32e
39050f00
bca13fb5
bbd3f31c
bc8d4717
3c750e24
3cf04716
3d0de167
3cd9ac16
bc81e025
3c5e2278
3d10b257
bb810980
bd093f22
3aa706a0
3ca4da4c
3cf412fe
bd0addc0
3c92bad6
3bf07290
bbd8b55c
3c1b96bc
bbfcac54
3b9b2970
3cc57da0
bca2a875
3cf29076
3c20d11c
bce078b0
bb8c18b8
3cec79e6
3c1a7f04
3abceca0
3cd0ecdc
3bdc6c48
3d0a05fb
3d02c5f9
3c219648
bcbe176a
3cc3cb46
bbd16140
3cb76122
bd0286f3
3cdea122
3c1f3b24
3b9baa48
bca76913
bbf63808
bb23c430
3b164880
3a1c9540
3c251d24
3d050843
bd0fcece
bc4e24ce
3ba7af38
3c854cf0
bc4db3ca
3c06ee04
3d09021d
3be91c00
3ad8de60
bcac1693
bcf56a05
bcd04c4c
3d1181ff
bce52078
3b1fd260
bc9b5045
3d0228b1
bcdd09d3
3c8543b8
3c07dab8
3befaff8
3d0f38d1
bc957065
bcb93fb0
3c53f9e0
bcaa0013
bcffd23a
3cc566ec
bca2c3ac
3c244948
3b984dd0
bb6a9690
3cc9c418
bce7770e
bca63e4e
3b787ad0
bac97ac0
3c214dd0
bbaf7f30
3cc43846
bc0c9240
bc45223c
bbcafc08
3b1981d0
bc8a7b0a
3b1d50d0
3c1c3854
3c710c54
3c3a23b4
3caf88b0
3ba4be18
bc8f71a7
3b926fd0
3d123a19
3cf87952
bad8dfe0
3c224a64
3bf001b0
bc2e92f2
3b1c14b0
3cb61000
bc37e6bc
3c9b31c0
bb8f4788
3be27148
3c9e2896
3c842a6c
bc0343aa
3cb304f2
bcd853e8
bd04fdfe
bcb52a43
bbfda238
bc7b9760
3d0d70b7
bc803417
bc2a750a
3cffbef6
bb91fe30
bcdb0d4a
bc7ebcd4
3c98f87e
3cd5f1ce
3c9942cc
3c462024
bcfc37ee
bb8d3e90
3bc0c7b0
bc4e33a0
3c410dc4
3cdf14d2
bbc007c8
3c10a7e0
3bc1a218
3ccf70f8
3bc5d750
3cc16be8
3cfb7a3e
3cdd9726
bc33162a
bc8d2100
bd03896b
3cf73702
3d0e8271
3cdd5c1e
bc94686a
baca74e0
bced7e5c
3c2b79f0
3c83e81e
bc50215c
3b95e940
bc525592
bc2c108a
bd09f860
3ce74772
bd0efd8a
3ce8d32e
bd0122bc
bc3de91c
3bc913f8
3cc53020
bcabbf9c
bcc3095a
bd01a6fb
bb5026f0
3c8ed08a
bbaaa71c
3c1410c0
bc8f0e2a
3d0e003f
3cb7831a
bd01e1d5
bba430f0
3d048e43
bbdc3624
bcbf7350
bd0ed515
3c5a3038
3c9c8ebc
bcefb56a
3c6564f4
3be4ffc8
bc4fdfd8
3d0333f1
bb9b27f0
3d01bebb
bbe9015c
3c9e1058
ba3c8a40
bc016104
3c66ee18
3d01fe69
bc0b885c
bcc32c80
3c7aac38
bbf9b694
3b33b3f0
3c15b828
3c01ad3c
bcf504e8
3c05ce78
bccad9b3
bcf00683
3cb92c5c
3bc86140
bc8800c5
bcd98b10
3d1108cf
3cd0be26
3b5e2a30
bb93b7c0
b94e4b00
bc9b9ac5
3c1df498
3cb537dc
bc55abf8
3b8d9aa8
bcdb05a8
3cf370fa
bc8f6a40
3bcceb78
bc5e47f8
bc3dd3dc
3bcc2bb8
bccaeed5
bcabaa5e
bccc3f80
3c86298a
3ce0da52
bc386372
3d0dfe83
bc150820
bcc6cbae
3b2b8fa0
baaac260
3cfaa502
3c828592
bc990fb3
3ccd7356
3a80af60
bc45b9d8
bcba4ce8
bc737af2
3aa4a5a0
bd093cc3
bc5ebdca
3cde428e
bd052e6f
3bb136e8
3d0671b3
bd1007d0
bc739edc
bba003b8
3cea6ca2
bd0ca370
bba71740
3d0c2c41
3c403140
bbe77670
bc6b7f4e
bce3b3f8
bc400b58
bbbf28d4
bc81a315
3ae91200
bc08b824
3cf143e6
3c92b1b6
3cef13ba
3cb24210
3c09eb24
bcae4710
bcac2d85
3b201ef0
3c5a6d94
bcc10e2e
3d09e73b
bcf99d58
3cb9a3fa
bd10eace
bcd41f2c
bcdf2e23
bd021db3
bc22dd12
3cd1b9ec
3b0f8b00
bcc63aba
3aa0fd20
3d0006cb
3d04d4af
bca776e5
3c4e2310
bca8f640
3984bd00
3ba9b9b0
bbb544e4
bc4a3480
3bc36ea0
3cfe3296
bbd7d0c0
3ce45806
bcd92b8c
bce384da
bcbfd830
bb9ad740
bc0fda4a
bc16dd2e
3cd50bd2
3ccf2ce2
bc7ddd00
3d0d5173
bd105eba
3b6f30f0
bccf1f7a
bd08e4f8
3c55c124
bd017d4f
3b69eef0
3c788114
3c50529c
3aac6aa0
bcace91c
3c97e7f8
bd0db91c
bccadcdc
3c64e458
3c31e748
3c45d8c8
baa00ea0
3b9af858
3bc61ba0
bca2b4de
bc09ab5c
3c7b7150
3c8f0d0c
3b1e4a00
3bd6da38
3c054338
3c633af8
ba9abf40
bb5fecd0
bd08bc3b
bcf2f9ca
3a67e9c0
3c419e40
3bb2d278
bcc4981c
3c22f6a4
3c0d6860
bc0347a0
3d063e23
3cdc5ffa
bc09862e
3c1e5c88
bc1ddf12
bcca9c40
3c9d2d82
bc959080
3c49c150
3cd09190
bc2dca2e
bccfadae
bcfb4d25
bb6f1450
3c42e9d0
3ccbbb72
3bb48eb8
3c30b168
bd11ffab
3c479354
3ca5768e
3b121270
3d0c41f5
bb1c8200
bba75278
3be81728
bc3ad0ae
3d04c151
bc07fd44
3ce29f62
3d0b6ae3
bd09b636
3b059330
bbc4f4b0
3ce6cab6
3b3f7e70
bc803770
3c394d24
bd022516
3cd12218
bc094e0a
bce64bf8
3d0c1771
ba60fe80
bd031513
3d01ef53
bcf07668
3c431420
3b3dca90
bc9ac5da
3cdc6ba6
bcbfd150
3c5c75bc
b80ff400
3b402f60
bca5a578
3cfec5ee
3cb6f14c
3ccf0ea0
3bde5e20
3b825c10
bd0ae0a0
bc37cdca
bc3e547c
bc0abf00
3d036257
3be1de70
3ce4baba
3c3f04c0
bcb0e583
3c0163d0
3cb8f9c0
baff74a0
bb57a1d0
3cda6586
3c882edc
3b8a1cc8
bc1551a6
3cd5771c
3c9fe15a
bbc590a4
3d085393
bc9379d5
3c11a334
3a74d840
bc9ac55e
bce0e6de
3cfaebce
3cd0fe00
3bb4bd48
3c5a8090
3d070add
3cf4cf32
3c106d70
bbad0324
bc9222bc
bcee7563
3cf4519e
3b0b99f0
3cbb72fa
3c5980d0
bc15e212
3c86b170
bb87a130
bc1d5aea
bca9752c
bc4096d8
3aeee7c0
3bb459b0
bce6f4d8
bd0aa9bd
bb254d70
bcdf86ea
bd0bc94f
3cb6ca80
bcb232a3
3d00407b
bc3ddb06
3c8d0c6a
bb138270
3aef0be0
3c8f6558
3c978f08
3c52b584
bcd209da
bd110f5f
3c35e3b8
bb1b6c10
3c21e8e4
bcade7e0
39d31f00
3c363044
3c692b5c
3b8c4e80
3b1b4930
bd0a844b
3b8d3998
bc925780
bbd967e4
bc860f2c
bb436cb0
3ce505a2
baefe520
3d0fa089
3c0bc834
3c73531c
3cb56310
bcc7d780
3cdea376
bcdfc558
3c8fa2b2
3cb005e0
bccd968c
bcdd3f60
3c9fe168
bcb97298
3c0e7d18
bc1b852a
3c9ad346
3bb21730
3cc4608a
3c5baa9c
3cfb344a
3c1ceb80
3c6a74e0
bcef0abe
3a6f5280
bcb51cb8
bc2b1420
bd025856
bccf39dc
bc861cf3
3cd1cc58
bbaa4ab8
3bd4d4e0
bcf1dc1a
bcc4327a
3a328200
3cfc579e
bc414efc
bca16f95
bca72768
bc7f3540
3c5c3018
bc68ba7c
3ccbdcf6
bc378ae0
bcb67580
3ce931c2
bcb6c285
bc31abc6
3cf07656
3b753c00
3c8081c2
3ceab9ba
bc97e720
bb966e54
bc8583b7
bb8d4d28
3c09d9b4
bcb7706a
3cece25a
bd08726e
bc9aac45
3d00fb59
3c0f3154
3ceaeb32
bc5c3658
3c104c18
bc06a8a4
3d0eb723
3cafd14e
3ca51bb0
3d0ccf31
3cbee9fe
3b986088
bc320352
3cc7b6f0
3ce7ed72
bcdd046a
bcd76f48
bad43ea0
3c6ba094
bcae8c6e
bc0ae912
3d05bff5
3a4ac8c0
bbb7df88
bcf7561c
3c50f110
3d0f1d75
bc0380aa
bc384d00
3c958806
3c77a220
bcc3d088
3d0e5719
bc2c03d2
3b68f770
3ab9f640
3caadb60
3d09e207
3cbf9228
bcba2d45
bc9a9d47
bc9beeee
bd00301d
3c7fdbfc
bcbc69ea
398cfc80
bc223e40
bada0640
bd105c83
b8c2cc00
bcf79d81
3c5613c8
3bd939e8
bc48dbf2
bba6c1b8
3c668ba0
3c585eb0
bcd86275
3c425b80
3ccf392a
bad14a40
bc50ccae
3ccfb11a
3b0fced0
3bfd7168
3c545db0
bc8ae5b3
bbe88f80
3c51ce54
bcf73448
bc8d5250
bbe28630
3cfce06e
3cb9e9da
3c4f73dc
3cd989e8
3c2b571c
3cfff242
bbcb4878
bc3fcb80
bbb51278
bb48d010
bbcde1f0
bcf83ee8
bacefb00
bcbfdac0
bc56d200
3c689254
bc82c5da
3c543760
3cdccca2
bc21dfa6
bc25b566
bd01eb02
bc0274d2
bd060eef
3c8e2274
3bb882f8
3a8d49c0
bcdecdce
bc6e9aa0
bcc816ee
3ca350d2
bd0fd9a6
3cf0c1ae
3d04550f
3aeaede0
bc42aa20
3cabf4fc
bcf7ce03
bcce338c
bcf51513
3cbe5042
3b960190
bd059df2
3c9b9a30
bcff2865
3ab03bc0
3c9fd316
3cbd87b0
3cb6aa7a
3cc80afc
bc4c2d60
3a96cce0
3cb72188
bcaa6ea5
3d089e71
bc8f5faa
3cb22cdc
3aa8b3a0
bb516690
3ccc02d0
3ba2b5d8
3b58d4f0
3ccb099c
bcedb315
bc468a98
bcb28f7c
3c36f81c
3c94b34e
3ca6971a
3ccd50fc
bcb6b8ba
baf8f1a0
3d03e445
3ccd3e5a
bbf3d0d4
bce1e82c
3cb3d250
3c969abc
bc2ba2ee
bb9c7ac0
3c8643bc
bc15816a
3cdda782
3c4c6e40
3d08c6cb
3bbe4b48
3cb99f4a
bcef7a61
bae220a0
3c29b9f8
3c8c7cce
3d10c0ed
bc8a54da
bccf1648
bc42d9dc
3ce21696
3c272b40
3ce58a62
3c0c9f68
bd05418a
3cf5f77a
3b0f23b0
bb532ab0
3cfde896
bb5adba0
bb7ef4e0
3ce0777a
3cff35e2
3bfc59f8
3d0fbecb
bd096542
bc7def6a
3b936990
bcb8ede3
3cc6132e
bb3ecd60
bc158a7c
bcd2332e
3c8f043c
3c879cdc
3c4d58e0
bcfd5a55
bb816c50
3bc9f210
3cd37c1c
3afb3220
3bcc82f0
bc9aa38c
bc94357c
b98bf680
bcef951a
bcbac8ee
3d0d9d0f
b90cdf00
bc8c5773
3c937ae0
bbfdf3b8
3bf674e0
bbbf3a08
bc5909b8
bd10e3f2
bcd99a70
bb8e3470
3c87615c
bb02ec70
bc28126a
3c82aa0e
bb812bb8
bced8d95
3d0aa4bf
3c5fd0d0
bc2ea8ee
3b772870
3c84fa24
3cee7dde
bd06e875
3c70b428
bd0a6cbc
3c036308
3ca13058
3c252614
bcc18c8a
bca3d8da
bcb40475
bc307e6e
ba826a20
3c752fa8
3cd2e8f2
3b91c910
bcea35fc
bc4233c6
bcfc1b1a
3c91fd58
3c8ce23e
bcf251da
3b109f60
bc99c4ba
3cf9b636
3b5b8c10
3cabf4e2
bc0e1f80
bc849f30
3c85da20
bbfdf464
3beeb528
bd05490e
bc9adae3
bd0b0bb5
3c84fabe
bc8f525c
bc5bf7b8
bc963295
3a9413e0
bcb9a163
bcdb2c3a
bcb2aa4c
bce88d35
bc737146
bba8a670
bbb16908
bcdc64a0
3c4f2064
3c9c8548
3cc93288
3b7627f0
bcc0ce98
bc42eea0
bbeee2f0
3ccadf60
bc51baea
3d0d4833
3c9d5cae
3c8f6aba
3a8801e0
3c7dadb4
bce178c3
bcd261ac
bc513818
bcbaaaa0
3ca951ca
bc218bf8
bcd4d06a
3c5577a8
3cef6fb2
3bf774a0
bb6e2120
3bfc2030
bb96c3a4
3d10e2cb
3bb416d0
3aa49c60
3cbfb562
bcedfb23
3ce0de02
bc899680
3c8304ae
3c943b7e
bcb30ea8
bb8a51a8
3cf28b72
3cb501c0
3c1d7d90
bcb9783e
bc52afae
3d02bc2d
bcd5db1e
3d0a9b93
bcbfd6d3
3c2cefd8
bae62fe0
3cae885e
3cd4c086
3c4e57fc
3c3d4fa4
3c90de5a
3cdd1bea
bc347e78
3c729840
3cd8db4a
bcd9c1bc
3c9c162a
3cda8986
3cb9b092
bb3036d0
3ba07638
bc314b5c
3b0dd4a0
bc362466
bb0f6ad0
3c864b7e
3c0010b0
3cff9a06
bbb9f470
bcda6e3e
bbf7b238
3d0237bd
3cc3831a
3c53d2a0
3cbb5f8a
bcb85c08
bca6ce43
bb822248
3c0ef9d8
bcc43505
3c68e3d8
3c24c6bc
3d091b25
3977c800
3ce61c7e
3cd6d0f0
3c480978
bcddced3
bcf3d178
bb8bd308
bd08fe7d
bcd2dc45
bc1869b8
bcfe2a63
3c40bb84
3c01c510
3c859632
bc770eae
3cc07458
bd04ae07
bc7d91ee
bc6e9c8a
3bcc13d0
bb884508
bcf5b048
bd02e9af
3c311760
bcab97c0
bcd8d75c
bccd984c
3c71ea50
bc58a2c6
bb449460
bc9be3c3
bce9f60a
3b36c730
bc9f32f5
bc8ebd5e
bd0c45b5
3d02df2f
3acf8660
bb78e880
3d0eba69
3ce5c65e
3bf21b88
3d117737
bc3b8ea6
bcbda02e
bb59c030
3ca6e3ea
37833800
bce79735
bc7c78e0
3b2d1150
3c3e78f8
bd0ddcf3
bc31a35c
bc562fbc
bce66a31
3cd8f3ba
3c1632b0
3d100789
3cdadd38
bcf818ca
bbb6eaa4
bcd8736e
3b9553c8
3c6068b4
bc827675
3a7b6000
bd116f12
3cce82ec
bc053a84
bc9f4945
3b825d00
3cf94742
bc6027fc
bcb033e3
bcc9d5ee
3b761770
bce375f0
3c9086ca
bcb4556a
bc2988d2
bc4d348a
bc445b18
bb50da50
ba851a00
bc328d8a
bc3b3040
bcc8033c
bc266b40
3cca54d6
3b14af00
3c58a438
bd0cf307
3c8296f2
bc705c80
3cea97ee
3c843fd0
bceafebe
3cc692fc
bb91ae48
3cd8a972
bc50f16a
bcaa9498
3cc27452
3cb91f96
bc807cba
3b9e6a90
bc811c27
bc8b74bc
3c96f802
3c2eedd8
3c36f288
3d0ac98f
3c3ff6b0
bc983225
3d057aa5
bb927614
3c055298
bcaafa63
bb23bfe0
3ce3870e
bcb97ec0
3c638194
bb801e68
bce0c45c
3c5f39c0
3c638740
3cb22bd0
3c67b730
bb2fa6e0
bcb3c4ca
bc934420
3c97a59a
3cfeea76
bb9ee608
3c967f22
bca4b303
bceb2dca
3b5350d0
3aa46e40
bc837310
bcd5b69a
3cbf8aee
bcfb9dd5
bc1c1558
bc96ffde
bce1f848
bcdd3348
bc685d0a
bc0ac3ea
3cd6b5f6
3d0ceff9
bcdfbd58
bcb1e94c
3c1407dc
3b575af0
3bc8abc0
3a094800
bc8f50aa
bbe0e79c
3ce98982
bba0b948
bc943c17
3c9a8442
bc477572
3cf8670e
bca1a7fc
bd0d628c
bc68d80a
3ca19a96
bbc24364
bc220a0a
3b8a2208
3cbc55e8
bd0fb444
bcf78631
3cad7d6e
bca175c7
3c2acb34
3a638840
baea0e20
3c5b8944
3cb9a7ae
3cc82716
bc8ff2c5
3ceff1ee
bc57e4ea
3b35a610
3cb4ea9e
bcf529d1
3bd97510
3cc1f130
3c8dabf0
3bbb9a98
39d2ed00
bcf9df48
bbbd3930
bc02d56a
bb95ac5c
bbc4d6c8
bcf02be1
3b73ce50
bcd6484a
3bd0b650
3c437e70
bbea9d64
3cb8c988
3b5f2310
3d0004c9
3bea9850
bad8ba00
bd10d155
3bd0c688
3d08a66b
3cc188de
bca51420
bcd6f4d0
3cd53748
bccfa123
bca64f4e
3c9c0386
bcd0923e
bb0ccb90
3c577b04
bc80b165
3d0f8261
bc574e66
3c2725f4
3c90cd40
b9edb880
3aea4e60
3c83d778
bc00462e
ba3e7c40
3ce6bd6e
3d0b4503
bbbeef00
bc6e6d86
3d04afe9
3c325818
bcbe0d4c
bd06a9d6
bc04573c
bcc16325
b9e6c000
bcfbe4ee
bb20cb80
bc432492
3c4c39e8
3b9615c8
bce4a203
bccf2133
3c943da6
3c9853dc
3cc31048
3b7f4390
bd0ad752
bb357b10
bbbcb5f8
bb88cfe8
bcf915ca
3c25feb4
bcd2c66e
bc788114
bcd4b25a
bb427c10
3d099e27
3cd6d4d2
bcdc8f10
bd08e302
3ceaa0b6
bcf35e43
bad4a2e0
3caf0aa0
3cbf1b3c
bc5fd8d2
bc0c0f38
3ce136e6
3b77c2b0
3c56c990
3d0bfe59
3c679ac4
bc43d1ea
3cb0b3ac
baa762e0
3c3a6604
bce668b5
3d03d5b7
bc9c021c
bcb44668
bc73f6b8
bc97f385
3cc9b95e
3ab8cec0
bc1911ea
3ca1b196
bcc03ab5
bd02e6cd
bce3344e
bcb186da
bcf8d90a
3bbe13c0
3c9aa790
bd07ffba
bcc38f28
3d05dc3f
bcc91728
3cb0396e
3993a480
bbdbfa08
bca9e0aa
bc9bb30a
bc1a18dc
3b8a3a70
bc65260e
bbe67840
bc6d864e
bc955f05
bb43a630
bc9f6f6a
3a088200
3d0cf893
3c00cf34
bd062fce
3c90b1c8
3b90cbe8
3d05101f
3cd37bcc
3c849dc8
3ca05e60
3ca3cbfc
3d08d0ff
3c922f60
bb458d00
3bee8640
bcf8d438
bd05e7d7
3ca746dc
3c84deda
3c775754
bc08ecca
bcb60bfa
bb516b20
bcb230aa
bca493a0
bc001a9c
3b8aa6b8
bc2d6412
3d085597
bc9a3667
bd103712
3a389180
3c88224e
bd054f17
3cb49d68
3cbcc69e
bc8d1ef5
39367800
3ca7783c
bcbf87ea
bacef4c0
bccb4428
baad7f00
bbbc0ee4
3ca8b2fc
bd04ce5a
3c7605b8
3cfc87ae
bc81401c
3d0a5081
bcfb673c
3ca2f4a2
3c9a9808
bc996bac
bcb0d073
3b94c6c0
bd0197dc
3b7f6e00
3c29c038
3d06325f
bd121bab
bc6a8006
bcb1449e
3cbab850
bb1479a0
3c9d5806
bc351000
3cc8841e
bc833ee5
3ca843e6
bd04bdfa
39ca5000
bad23d60
3c1688b4
3c700038
bbfa2270
3c2bbe38
3c15059c
bc79de58
bc7168b2
bc48aa52
3cc64b2c
bd0f9d66
bcd596c0
3ce4e092
3cd4129c
3d0f097b
3cf11d62
3cd2cbac
3bdf86a0
bc1a7de0
bc05f640
3ce0178a
3cc3742a
3cac5140
bc2e0a9c
bcd9a7b3
bc8ede3e
bc735978
bc9759b7
bcc5bb8a
3c3b1a08
bbec6a40
bc9af7b7
3b5de6a0
3c11ca30
bbfc9e40
3c588cc0
3cc47b8e
bc7d0386
3c49ac88
3d06e179
bbe2541c
3c5af018
bcd4d643
3be69828
3d027c3f
bbfcacdc
3cef5172
bc917cde
bbe30878
3cd99178
3c932f42
bc48ea3c
bce36878
bc159932
3a985400
bd0bf75d
3ce06bee
3c3e37f4
3cea7782
3c7f0cbc
bc5c026e
bccde0e0
3d0c04e7
bc2c78ce
bc19bee6
3bcc3d40
bcdc16d5
3d0dc9cb
bc8bd775
3cfd1e0e
bcc67c28
bcc00e03
3d0b7639
bb0c5c50
3c2eefe8
3c899d0a
bcb2da0e
bc8af835
3ad9d100
bb5f9d70
3ce9277e
bcb0f743
3c3e08f8
3b966f18
bb9032c0
3ce13bae
3c215134
bb4db420
3cf0ae6a
3bd5c7f8
bce9a1d5
3b710270
3b9772c0
3cd487dc
3ceb4bfa
3cfd5a2e
3b22f070
3cdaa03a
bbb6fcb0
3c2f5e70
ba36dcc0
bcd254a0
3cb00bcc
3c7a3128
bbc96fb0
3cedafc6
3c0a3994
3c300550
3cbc5e40
3ce26f1e
3c1a5120
3cb87222
3ce164e6
bc1d5b06
bc872817
3cfb6302
bc53dab2
3cdb79ca
3ca88c8e
3d0e3391
3bcc80a0
bb3c03b0
bc10a844
bc67930e
bc9ec0c7
bc1628ee
bcab0d1c
bbc1abb8
bcae9c33
3cebfc92
3d020379
3ca1e7b0
bccb460e
bcc13790
bd06c2d7
3d0af27f
bc4d71a0
3c450cdc
bbc86eb0
3d0def19
bc6a39ea
bb1b0310
bc945a37
bc83e3b7
3ca48d9a
bbd56da4
3c080b64
3b6fb450
3b8906d0
3a193d80
bcd9ecca
3cc97e28
bc6bda1c
3cc457c0
3cf77b8e
bd065813
bcea2db3
3a9b9fe0
3a815040
3cb79d4e
bca78093
ba91a2a0
bcfee9f1
3c584c78
bd0b09ed
3cd1ca48
3a7a8800
3cd003ec
bbf8f108
3be0cf90
3c11a064
3c082a90
bcf33b95
bc0bf620
bd1135e3
3c99743a
bc9403ae
3d03d43d
3c250bd4
3cb0d7a8
3cafc982
3cdd44fe
bcb0a9b3
3d0c53d7
bd00125b
bca6e803
bce2d5d3
bd07780c
bc59854a
3ce7eb32
ba23a240
3c7dbda8
3baa05c8
3d10688f
bc6ac712
3b426990
bcc84333
3cfe1cf2
3baf8638
3cacecc6
bc4a0fea
bca886fc
3ba9b130
bd0670f2
3cd12782
3bdb5db0
bd10018b
3c1b7fa0
3ae68400
3c387394
bc27138a
bd07fccd
bcd184e8
ba973a20
bd023543
3cad2f8a
bc756bce
bc765e86
3d0c945d
3c976800
b8bc1e00
bc035b04
3c0a1dd8
3c8b67a2
3ca459e0
bc3a398a
3b117990
bc3cf060
bc760d46
3b99b980
3d0cb663
3cc5e136
3babab58
3c27bf5c
3cdcfe12
bbbcbc30
3b825ff8
bd0558f4
bcc763ae
bc678706
3c8f9612
3bb08af0
bd027165
bc9ac155
3bf371a8
bca96615
3cc39cec
3c056318
bcbd8fac
3b9cf858
3cfb623a
3cc82430
3cf793be
bcc9049c
3c1a86d0
bd02abb2
3bd57528
3c60f9e8
bcb7c3ce
3ccf1628
bd06f487
3ccb7cfe
3c2b2538
3cfb0822
bc89e265
bc81574a
3d046feb
bbc1c414
bc8fdcba
3c4db2b4
3c136d84
bb3605a0
3d0ca317
bcf96af1
baaaa020
bc30c9aa
bcdd793c
bcc72515
3c8b893c
3cd9a54a
bcbffdb3
bc693438
bc06ea5c
3c14da34
bb149280
bc4f7b32
3cc2bbfe
bbd12778
bd102307
bba5ac5c
bd0e34a3
3c2cfd7c
3ce2a932
3b838f00
bcb0213a
bca901e8
3cf91bc6
3c9c1296
3ca66a3c
3d0e5147
bc87587c
bb273fb0
3bcd64a8
bd0aefff
3d02547f
bc981bc7
bd0eb045
bcef1dc3
3ce2a932
bbf90bb8
3c9ac288
bc359920
bca63968
bb63f150
bd0566a7
3bba1b88
bcb3e9ae
bd07ffc3
3b87f350
bc9bab87
3cabd182
3c9d8e80
3ce4d08e
bccd6393
bc2b1346
3cca6018
3b94d830
bc322eca
3ca7806a
3cdf160a
bc87908a
3b90b7c8
bb89cc18
bad50840
bc61479c
bcf6d423
3cadd192
bcea5748
3ce348be
bc6bddbc
bcc2c1a0
3c76f518
bc39d4a0
bc5481ce
bc908005
3c6bfcb4
bc843fec
3d0362bb
3d091931
3a98c240
bc012fee
bc2d8f32
bcbbf83e
bb5c7620
bc931403
3cd12d6e
3cda7660
bd03bdcc
bd0d064c
3c70731c
bcf03861
3b21b4a0
3b7824f0
bc87597e
3cd53a42
3cf6c9c2
bc66b5ea
3bfa2778
3b5f1a00
3c1fd118
bd0aba24
bd059d25
3bbd6608
bc9ee99e
3ced9212
bcfb2b7e
3b634990
3d0c1f11
bcb79b15
3cb7bbda
3c84977c
bcfe21fc
3c3221f4
3c8644f4
3b4a7e50
bbf7a1b8
3cb3f312
3bb00a30
3b8294b8
bd05f6bb
3c6a7ee4
bc5b0946
bcaab618
bca6f6d0
3c961e66
bc2cf7aa
3c8223c2
3cd8132e
bba13e64
bbdea7dc
bca2426e
bb812fb0
3c5527c8
3b5a2c50
bc674778
3c245e5c
3d10f2b5
bce525e8
3cf2ba82
3c082100
bc6a19fc
bc97aa9a
3d03c2c3
3c25fb30
3d0127a7
3cdb410e
bc4bab18
bbe73f9c
3c41d7e8
bc1452ea
3caf89bc
bcd38a35
3d0f013b
3aa82d60
bbc71038
3d0a5ef3
3cedbdc2
bbc3e9c0
3a81e300
bd030603
bc097058
3c98c32c
3d06a82b
bc6f0f2e
bb96ab14
bc104c78
bcefce31
3bc739d0
3b1ad130
bcddc33c
3ceb66aa
3d1204a3
3d097971
3b53d050
3ca81a60
3cf52852
bca6c658
bc3efdae
3aff45f1
bc9ab38d
bc82d2e5
bcb555d2
bc9ba79d
bcc2b554
3ca8c755
bccc56f4
ba9cce51
3ce380da
bc238ad6
bc93c0a9
3ce0a3b7
3cbcb2d0
bc175135
3c97b8d3
bc975975
bcaaf6b5
3c49a13d
3b20cf30
3d11d6df
bcbb71b9
3cf136a7
3c9b86c1
bb9056c9
bc388e63
3c941d48
3c244845
bce43b86
bc9790a0
3c307475
3bed500d
3cc8507e
bc2fce1d
bcf880c9
bc381e7f
3c6b1890
3b9bfadc
bcef10b0
3bb6e488
bc167aa2
3cb6b7d8
3c83550d
3cc40430
3ac875a3
bc815ab0
ba724a1d
bc64a048
3c271d66
3c6962a4
b9b47a2c
bcf35198
bd0fcd8b
3c1328e7
3cf83903
bb9ad19d
3ba58d67
bceb0a47
3c955486
bcab95ee
3b1da4de
bd06b12e
3c4f58b3
bbed462f
3ceb1065
bc6ee78c
3cc70a9c
bc839ace
3c8bd66e
3c3d98fe
bcd1d080
3cb067aa
bc3b0e2a
bb4cc14b
3c82937b
bc9606f3
b9b5f2ef
bd02d148
3bbad618
3c289958
bbe23ed0
3b28e345
bb11b9b5
3c4b2341
3b249744
3b72b9d8
3c12e71e
bb27a30a
bd0d9b0f
3c4afc78
bb8d1ce0
3ba7525d
b79390b1
3cb724a4
3bcfbd3e
bcc22d6e
3ce24a76
bcf6bbc4
bbc507a2
3c126964
3cc87fa7
bc87cdcd
3cf65eb9
3c8b1f90
bd0136d3
bb156dba
3cd665eb
3c8fd9a0
3c44cd89
bcc88cfa
bd0a1908
bcbad8bc
bd065522
bca0cf95
bcc25251
3bc1364e
bcd3a165
bcbac865
3bdfd1fc
bc9c10d5
bd0d14cb
bb9d5115
bd05722c
bcfce639
bbe2d66d
3d003242
bc46fa35
bcdf4955
3d0db926
3c9f2823
bcca3d66
bd11d89d
bc220827
3b94fc4b
3cf09c8d
bb9e0ecc
bb2adc55
bcfc6419
bcac7577
3d08ee4f
3c53812c
bbd899aa
bcf1058e
bc5ae09f
3ca68282
bcca920e
bc32acc8
3945c721
3c53690a
3c1ced54
3d0eb876
bcd41585
bcbd5544
3cb90593
bbb8bc68
bce4f1f4
bbe4fb2d
3c0087a9
3bd47450
ba4e6824
bd016b92
3bb39d0e
bcdc19b3
3c040a44
bd0604ba
bd08c75a
bc3acadb
3c9867f0
3c2df73b
bc25eb90
bcc61655
3c825580
bc51792e
3cdf0a57
3c371761
bcb0dab8
3b980ba6
bcd0fdb0
3ce8c4e3
bcb858cc
3cac9eda
3cef1629
3cab938b
3a547f37
bc983dd7
3c445462
bc23f2a0
3ce2fa76
3b7f2f49
3ce32143
3c0844fd
3cb511df
3aeb98de
3cb8f068
bae91404
bc4cd7c7
b8c49231
3c90605e
3c495ee9
39cd3e44
bc8526ac
3b6dbd16
bc368c77
3c89e668
3cc5aae9
3c87225a
3d117c81
bcec02b2
bc9e2faa
bc21f976
3bae4096
bca4e9fc
bc1f748e
bd0f919d
3cf6a726
bce93b9f
3c947eba
bcd79201
bc9ee113
3ca56cde
3cda9946
bcdb70e9
3b44a997
3c2279a1
bc7a34fd
3d09bb1a
3ba127a9
3d022160
bc913709
bc5fbdcb
bc9c7e45
bc715ee0
bccd642a
3c865d82
3cd0840b
3c8f23aa
bcb5e382
3c2aa12a
3d1080c6
3cff78cc
bb7f049d
bcbcdb18
3c66e65d
3c882d4a
3c74cee2
bb9df799
3d0e49f4
3d0becb5
3c91ccbd
3c12ba98
3d03d5c2
bd0f882d
3cac0b32
bc8e90b9
3cda2503
3ccb7a66
3cd4a755
bb764326
bc90c71d
bca11acc
3d0e2bff
bc85abc1
bd016fad
3bf7eda9
3ca4f93b
bca5580e
bc40e99f
bcacdc01
3c8b8d80
3cdaa105
3c62e438
bcd6a1d6
3d10014b
3cad7c53
bcfca1c6
bbe82494
bc793476
3cf800b2
bd1186d2
bd01455c
3b7526e3
bcb56a55
3cbb1efd
3cd72669
3cd8739b
3be126b5
3d0359c1
3d10a42a
bc7cfbcb
3d097d02
3a40e6cc
bbbacd7f
bccd10ac
bd07814f
3ca807c5
3ce78e73
3cda16a0
bd08b755
3c2b0bd8
bc1ad158
bcecf5d5
bc2a13bc
3cab8050
bc626d46
3a85dae0
bc44d67c
3cf8327e
3bdf6ce0
bcfdb7e8
bc069332
bd06287b
bb6773a0
bc058d18
bc8980d7
ba8fd4e0
3c7b1458
bb86c488
bbb0d454
ba86cec0
bc93cae7
3c330df0
3cd5c5a2
bc4cb77c
bd028efc
bc686d26
3c641314
3cbb4fdc
3b8ef570
3ca87b48
3bcfa348
3cf6ac42
3cc2053e
3d1034e7
3c4aa808
bc031e0a
bd087290
3ceaf8a2
3b8b6b10
3cf59046
bc64744a
3b5a54a0
3c684d78
3b3e0350
3cb17dfe
3c916bd0
3cc3cc1a
bb8ff280
bc8d70e0
bc2bcb5c
bc5051ee
bc5e6146
3d09e137
3bd020b8
bcc8cd78
bcb92398
3cb67730
3c744a40
bca68ede
bd07a418
3ca3ae26
bbebe2c0
bce39c55
bca7c773
bac39e00
3c72d6c4
bcaac5d8
bc71e738
3be8bed0
ba7ef940
3cb82f50
3c0b8f84
bc8d9010
3c856a18
bc755dea
3c5bd01c
baf5df00
3a9f2a00
bc8006a7
bc790ca0
3cc9caee
bca46eae
3c947c9c
bce3a11a
bb0677d0
390e8600
3cdb76b6
bc431d72
3c2d05b8
3c48ce74
ba8dac40
3d09af6f
bcd61dc0
bc995620
bd05b944
bc9cd33c
39b07480
bd09f7a5
3caf60ce
3d08caff
3c637940
3cd8cd2c
3bb883c0
3c735a48
3cd34462
3b39b180
3b05a8f0
3cacdd2a
3b2ecca0
3cef1c6e
bbc9fc54
bca7bad5
3c8155ca
babb8520
3c933c3c
bd0bcc98
bc865e13
3cf8fdd2
3b61b900
3c59c264
bcc48c98
bcd99095
3bccf6a8
3c113058
bce99cb5
bd0d2cec
3d007c29
bd091b13
3cb1dc2e
bd119090
3ccf80b8
3c8c757c
bcb2e52a
bc7a8800
3c8734d4
3b8efab8
3c6517f8
bc91b730
bce026ba
bb8c4e90
bce93008
3a4b9380
bce5dae5
3c83e68e
bc06ac52
3cef495a
3c069514
bb6aa870
bcda8678
3c782a00
bcf6e428
3c8e830a
3a883a00
bbf6db88
bc99ce0e
bcb4de7c
3c0db83c
3d0cc077
bc924cdc
3d0a1143
bd0ab90b
3d009e51
3cb3036e
3cb36a56
3cc56b58
3c66d95c
bd08ea4c
bcddd920
3cba0ed8
3c7406d0
3c4c8748
bc93b3e0
bad46700
bc238360
3aa72100
bc99029c
bc75ece0
3ce8be06
3b03d090
3c3e5f54
bb029f70
bc0881d8
3c229a38
3c742124
bc6dc86a
3d0347d1
3b224600
3baa0710
3ce662be
3bbd5550
3cceadce
bc1ec2d8
bce10d95
bc1af14e
3bf83c38
3c53caa0
bbfea714
bce678e3
bc906c5e
bc22686a
3d0ff03b
bb9efc54
3c90785e
bb7cfe70
3c2e02b4
bd03d3ed
bcfafdee
bd101d3f
3ce88c72
bc19d792
bcacfb70
bd028cfd
3c00c558
3c39bdf0
bbe7ac54
3b96ba98
bae58120
3cfc55be
bcc82550
bd04aac8
bcccc82e
bcc42765
3ca9aabc
bcdce920
3b998c18
bb8f4310
3cbb253e
3c8209ec
3c65a9b0
bbad8238
3b4c49e0
ba8fbf60
bb0f7160
bc672e2e
3ccf4d80
bb855bc0
3cf890ce
bcf59d1c
bcb21765
3cd52632
bb6eb2d0
bd0aefe8
3d049245
3c51d264
3d03bc5f
3cd39a1e
3ceaa13a
3c639f9c
3c899ccc
39f36d00
3cad705a
3ca309ee
3c5a1ad4
bc8583a7
bb204620
bd0a95f8
bcbbf903
39e83780
3cf44aee
3b9bbb58
3c0550e4
bc82cae5
3bbee590
bc4197ae
bcade61e
3d031535
3c95b238
bc1d5878
bcfc8e7a
baf6c740
bb5936d0
3b10de10
bce66453
3ca39d82
bd0b09af
3c33dc24
3b8238f8
bd1018e7
3d0539c3
3c28bf04
bca957d0
bcd39c48
3c706a30
babd99e0
bced7663
3cc073da
bcf45d31
3c960cac
3cee8e6e
3d122a29
bcaa55da
bc9085a3
bc86fc37
bb2a10a0
bc5b9c06
bc0311b8
bb95cd48
bbf33e38
3cddf882
3ccbab0c
bcd6eaa0
3c7ba798
bbff7770
3cb6638c
3c8a3ee2
ba77fb40
bc58e846
3d0e7711
bd0e3e4b
3b134cd0
bce180ec
3c25b7d8
3b15b820
bd099d9b
3ab2b640
bc501646
3d01f18b
ba2d21c0
bce29bec
badb2320
bcd0e10e
bd119b86
bbd526b0
bcc9962a
3bf3a2f8
b8ed0200
3b32c3b0
3d110f61
bce1b428
bd03978e
bc572932
3c96dbee
bc0db44a
3c3ac1a8
bd06793f
bc39c5a0
3c1967a0
bc2a31ae
bcf7189c
3bbb6f00
bc999875
3d0e5325
3b2b7a20
3c45e4c0
3c1da01c
b9e8e080
3caa9396
bc6b2e9c
bcc6de4a
3cf7d4f2
bc6da14a
3c67be44
3cfd8372
3c2fe904
bd025bf3
3d08292b
bb6708e0
3bca3aa0
3c248264
bccef1da
bb80ba38
3c84f7b4
3c62b81c
bbd45870
bcf23cb8
3cbe1f0a
bc9ff985
bc4273ee
3c7af264
bc16d772
bc0550b8
bd0decde
bc2aa6ae
bbbf5988
bcaaf3aa
3c653960
bc236b4a
3c097094
bc9a4e45
3cf13686
3c607a38
bce304fa
3cbb42b2
3cf7fdae
bcf94b81
3cb3c36c
3bd16a00
bcd45345
bc2115dc
3d0c10e5
bc822ce3
3c159f3c
b7e9b800
bc61a892
3c99e166
bcb8022c
3b4884e0
bc01ddaa
bcffe4a3
bb00f890
bc40bcca
3c3942a0
bcf5f2c8
3cd113d2
3bdc1f60
bbde6400
3b0e7bb0
bca39d1a
3806e000
bcd47f78
b9f3cd00
3bd6fcd0
bbc53648
3ba64688
bc0413c0
bc9ed2e3
bc28d340
bce556ec
3cc39e98
3ce7ef12
3c89cffa
bcd8466c
bcdd5368
bcfbe3ca
bcb3d385
3c93331a
3c7ef174
bc97c653
3ccbe7bc
3ca21f38
3cb149b0
bb325f70
3c172474
bcff8671
3a124a40
bc47246a
3cb74220
bba30778
3bb1c2c0
3b5ae700
bc2a7086
bd0ee560
bbeefb64
bcabd9bc
3c5ad728
bcb28b73
3b705c00
bcd2dc9a
3cd0dc76
bd03124a
bbf24cb0
3ce48df6
bb8ec7f8
bbc9ad5c
bc22ac72
3c8f8532
bd04fb03
3cc52d9a
3c646c20
3b1330d0
bbd295d4
bc688baa
bd097286
bc492cca
3cb79d0a
bce3595c
bd093533
3bf01010
bccf5fb5
bc0a074a
3caa60c8
3c6373a4
bc8e1863
3d05367b
bcfaada1
bbe11094
bd001c94
bca81230
3c98117e
bba59b5c
bc9bcea5
bcf710e3
bc889b9a
bcb5722a
bb0ccd30
bca68ee3
3bea0410
bb97ea08
bcc1be98
3cf5d962
3c43d79c
3c2fdf40
3c50ab7c
bcc780de
3d02edf7
3cb9013a
bbe56bc8
bc976ab3
bc8de8c7
3d107b79
3c7fd2f0
bcc9beca
3c026958
bcafe1f0
bc48ae86
bccbce03
bd11367f
3d022537
bbb18fb8
bcbe8963
bcbd7fa3
bcd8f258
3cca0250
3b3af8b0
3cb023ae
bc7b20e6
bcf33d68
bd0b0118
bc6975f8
3cb0ed36
bad230e0
3cc96b70
bcec968a
3ceb744e
3cff2166
3d08a0f3
3ce4522a
bb9879b0
bd0596d5
bcff7ba5
bc252f78
bcc7c2e0
3c4bbf28
bcf79773
bad921c0
3c4b541c
3b872c48
bc43a44e
bd062f23
3cef429e
3c00cb98
bcd39fbc
bd016366
3936c600
3c7ff180
bcda6d55
bb320280
bc77dc78
3b9c3478
3cc117de
3d0bb103
3d0e0ecd
bcd1c920
bc8d48fa
3c142ad0
3c03cc68
bcd718b5
3c2df5f8
3cda51c6
bb016b60
3b64aa50
bcc46fae
bcd36623
3caecc30
bcab0ab8
3d0a7e43
3c335440
3c406070
bcc5b520
bd101a0b
3c8cc9be
bcff70cc
3ca93428
3ca1176c
39a16380
bd0f8bec
3c72e470
bc8bfffc
bcff3c9c
3c000198
3b89e998
3bd6ffc8
3d109c49
bbe779e4
3cf78a5a
bd0fd98a
ba63d340
3d04c637
3b2a9af0
3d0c7577
bccd9568
3cf156a6
3d017123
3cdbd3ca
baf4ee20
bc3b0a4e
3ba79a30
3c2fd2f8
bcf0e74a
3cd398ee
bd106fd5
bc3931ee
bc86aa6e
3cc16682
3d10a629
bcc88f2e
3c02a710
3c9a62f0
bc9a39b0
3cf19686
bcde3d0e
ba71fd40
bd011470
3c88f774
bcb5f9e8
ba8f4360
3af68ce0
bd0a000e
3d00de3d
3c81a4a2
3bc02b28
ba9710a0
3c3da680
bcb7124e
3cde5832
bbef9ec0
bcceff6c
bcf26543
bce457ba
ba9dc400
3cb66e80
bcfea87e
bc9215da
3a6f0ec0
3c292444
bbed7348
3ceb044e
3d101463
3ca675e2
bb26dba0
badbbba0
3cfd26a6
3cd783c6
bc70602a
bc972697
bd114405
3ce54fce
3d09a62d
bc5d5700
bbb96e14
3b8854f0
3b9f31d0
3ba047c0
3ca0ad6c
bc867d1c
3ae03de0
bc07f3ae
3bcf8088
bd09462e
3cbca70a
3cd35b60
3cbd10a2
3cd0ee3e
bccdb8ea
bc84768e
bc6fb5f8
bc7f96d8
3d0bd697
bcb80948
bc62294a
3c8a6c34
3c3f13b0
bcf42ed1
bc01472e
3c96f038
3cadeb66
bbedb4f8
bbf36738
3c8e7772
bba3d6a4
bcdc5f6e
bd0909da
bcfcb9f8
3b893ed8
3c92ed96
bc9a3f10
3b061320
bd004afb
3cc1db72
bcebf6b3
3cc8b542
3d0d1945
bd069b70
bd11eb3d
bb9784b0
3c9552a0
3c9b0316
3cd3c8d0
bc8f7f00
bbd5bdf8
3bb51d48
bcb08345
3ce67ab6
3c698238
3cb808d2
bd0db180
3c9086e8
bcaccb9c
bbb9ee94
3b812fa8
3bbb3c88
bcb8b51e
3cfaf5b6
bb258880
bc94b2ba
bcf57668
bb5b5db0
3c90a93a
3c3dbc18
3ca36032
3ccd1796
3b581820
bcf7dcba
bd102490
3c298b10
bbf678d4
bd09e315
bcb9acfa
3d0bf267
3cd49316
3c67e5b4
3cdb9ea6
3c880148
bc74314a
3c97bafc
3ca63c96
bc4c7c98
bca8135c
bcd10633
bcb9d3a8
bbdf8124
3b6de470
bbc3fb14
bc52ce7c
bce790b3
3c210054
bd09251b
bbc305a4
3c331fe4
bbce24b8
bb15f870
bc9e07ee
bccb7a2a
3a85b420
bb679990
3c8eb8fc
3cb92386
3ce9abc2
bbbc2770
bc32ded2
3c09a8d8
3c3eddf8
3d0b2131
3ce95b3a
3d084181
3c2436b8
3cbdcf7a
3cb98e8a
3cebc646
3d03207f
3ca78f02
3c9bfa88
bb8b70a8
bcd8b0da
bc771dc0
bca92698
3c046594
bc50646e
3d027cdb
3ca6f67a
bcf6a96e
bcf6f79c
3a34e840
3c89ef62
bc0adb12
bcfcee9a
3c9e48ea
bc513aea
3ca5ca26
3bd25d28
bc823820
3b0b1720
bd1191ff
3ccd5c3a
bb8b6b00
bcd5d44a
3c93dafa
bc964d4c
3c1b49a6
3c574aa7
bcc900ef
3abbea60
bcdfbc1b
bd017e30
bcc18266
3bf10711
bd015bbc
bcf97449
3a1181ff
3c675bcf
3c481a80
bc202ba5
3cf920ee
3d08382c
3cac804e
bc871866
3c9f32ab
bbef674a
bbd6ae28
3cec364a
3ba950b0
bc9b21fb
3c642fed
3b98be58
bd105f3e
bca81020
bc847651
3d0a74e9
3c19d617
3cb78bca
bd0caaa8
3bf50a2e
3c6191f3
bc64c75c
3d05f8ac
bcc08cf7
3c498452
bba37faf
3c44a9af
bce23e9f
bceac33b
3c8efaa2
bcc5b1e5
3ab64393
3cb5f0f9
bcd0b015
bd087a72
bc1cb489
3a69900c
bbfa4230
bbc0b5b8
bc44be6a
3c857c0d
bcf19417
bcaeebb0
bcf0125c
3b9fa0a8
3c94e76f
3b4fcbca
bc9a43a6
3d07723b
3cc97f08
bc4dbc00
bc7a0517
3c8d569e
3c977ef6
bc469bbc
bc0997a0
bc5f0a2c
bb3d4203
bcd3a32f
3d00c552
3bb76c4a
3d12c447
3c2665c3
3cca4f76
bccee38c
bb7dba9c
3ca5e0e9
3c8c2173
3c3e45b4
3c33fa54
3c3cdae6
3cbd5737
3bd7d46c
3bc9bab7
3cfe64a9
3ceb2ec4
3ce5cb5f
bc700340
bb8d2251
bc9c1d8c
3c996e72
3c833c82
3d0e38bb
bce3ff6d
bcf57192
3c721f8c
bccb58c2
bc8e5cc3
bd0a2f85
bcd90f7a
3ba41281
b95cfacd
3cb97c8b
3b9d1f69
3cdf8978
3d04b602
bc4bc7b4
bc702673
3d0ed469
bce7d90e
bd11c0ad
3c3688c2
bcde5078
bc82d38b
bcef9ea7
3c6600f8
3cffd7b0
bca384b7
bc31fe6e
3c8db9c6
bcd4dbdc
bcf806aa
3d0b6ba4
bc141377
bcf86d71
bc9b7715
bd04f187
bcba9d8c
bd028ab0
3c2a82bc
3bdf3de6
bc5f990e
bd09a2fd
3c00e56a
bd0273de
3c30fb5b
bc662d09
bca5c69f
bcd00d08
bc700363
3c17e121
bcbdbbf7
3c7d862b
3bf20503
bc8f1512
bd0dae24
3c86f239
bcad3d00
bb8c1530
bcbaf7a0
bcdaa9dd
ba8bda87
3c0e23c5
3c9a6ffa
3ac1f0a8
bc057b75
bc8bbb68
3d101e47
bc54abc3
bb22fc49
3b143445
3c373977
bc881dc2
3cf0ef6c
3cc9fd5e
3c4ed140
3c4c946e
bca0cb30
bc36ed92
bb587e16
3cf9f209
bcd488bf
baa764c4
bcb13422
3c0e49fd
3a9f2b5f
3c687564
bd119191
bcbf2d6c
394a23ac
3d120ec0
3cb4de83
3bb665b4
bcd59978
bc699b1d
bc3ae882
3cf6cd33
bcdc877a
bcd914c3
3c202b8c
3c434620
3a5fc72d
bd0604c5
bc6518be
bcbac90a
b876b7e1
3d04227c
bc9aa716
3cad7529
3c9753f8
bc52c9a0
3cefd234
bd001bfa
bc947bb6
bc6b9371
3d0ac84e
3cd9834a
bcfad69b
bcdbc501
bce2a12b
bd00906a
ba84a210
bc114338
3c3d81d0
bd0b5caa
bc8237be
3ae5620b
3b994170
3ce9cd3e
bc70bd5e
bce1748c
bcf83845
bd0c8077
3c07bd21
bb45f0fd
bca066a1
bcb1d2a3
bc3f9506
bc0038ff
bc94c14b
bcbb5977
bc0e4336
3cbec1bb
bd08ab80
bcaf83fa
bc3fea25
bcfdda52
bc9177f6
3c2468b7
bcf65a68
bc7b7e2d
3ced40c9
3b317215
3ca5368b
bcbc6e9b
bc5f0efb
3cb4de5d
3d01d420
bcc06ef0
3c9caba0
bc9a7183
bc79a0c7
3cf4b65a
3d04b51d
3c24092f
bc8dc4fb
bcbd5c8c
bb4624bc
bc64fcb1
bb8c9f89
3c419370
bd0e4991
3b44979d
bc6701d0
3d088041
bd118df3
bcd35873
bc3fc6cd
bc10d74a
3d115c06
3ce0c241
3d12c38b
bc916a29
bcf73d27
bcdb7125
bcab30ef
3c9a96ed
3d060ac8
bcf87c83
3d0d4a67
bce9cb69
bc6098b9
bca172e7
3bdd7c1f
3cafa46f
bc7ca702
3aba98a5
bcb655fe
bbb3339d
3cc6da2a
3cc8a8e6
bc97b42c
3c77d001
bcd9407d
3ba5f60b
3ad6eca1
bcac5524
3c6eeaf2
3c82c47d
bcfe96b4
bc57881d
3c3aea8d
3cebfdcb
bd09821c
3c5467f4
3b0215ff
3c3f206e
3cbbc97e
bc9bb186
3c526c64
bcb18163
3cb9cbbb
bcb1017a
3cef5e77
3d109244
bbf16cbe
bcc0216a
3c1a2b49
bcaea9fa
3cdbbcfc
3c5f3e75
bc777b0a
bb8c35e0
39b09fa2
bc9c22e3
bcbd7709
ba92158b
bc9bfdc5
bcaacc00
3c6793ae
bcb90be1
3cb69063
3d02f246
3b6e8bc0
baecfb7d
3b371659
bc1cdfe9
bb69ff12
3cb32e8f
3caae58a
bd0906ff
3cb3a81f
bc724d0d
bcb88d9e
bcca6e40
3ca90bb1
bc939309
3c023a38
3c46d131
bd05a0f9
3d0f7831
3b9ba13d
bd0142a2
3c7b49f9
bca4d6a0
bcc516b1
bd032dc9
bbb16f7b
3cd9c0cf
bcb32449
3c7a79da
bd01ded4
bac63964
bc065293
3c9520dd
3bcdb359
bcc6efac
3c6f2cd1
3cca5446
3bd467a5
3ca0add8
bcaf83b7
3b94e052
ba86be21
3b9d1c6b
bcf85df8
bb48adaa
3ce598c1
bd0ac0f2
bd0aeddd
bc165c28
3c978f37
3cfd7955
3c22ff94
3d11b66c
3ce53853
3c98e65f
bcfb93f5
bd05998c
3abc4240
bcd51c26
bc75eb2b
3c0a1a72
3cfe6908
bcb18a80
bc63c660
3cdda075
ba5260b3
bcdd53b4
bbcf9ceb
3c99be77
3bdcbf0a
3d0824ce
bca1dabe
bc9c1448
3cd92cef
3cbc1edc
bb2696c1
3c362a63
3ca5f651
bc97c83e
3b015d2b
bada9e20
3d0e0fe7
bccca7c7
bbb801fb
bc2ad4ea
bcadb06e
bc77e438
bcff7c81
3d05fc87
bd116094
bc9136c4
bd09f738
bb246312
3c9a825b
3bf50a40
bc1f3179
3c09e4c6
bcb932c2
bc492a74
bd058bc5
bcccc8fd
3b09fc52
bb6f9d12
ba5a06ca
bc186d4a
bcd3cdd6
bcc6e381
3cfda65e
bbe71ed7
bae6c75d
3b90a488
3d0873e1
3d025968
bd0e8a32
bc444ae2
bbc33f62
bcede51c
3d030d2a
3bf39ce7
3c0f2526
3b7da718
bcd6f4a7
bc92d4b4
bbd56ec8
3c688c4f
bc218439
3d0807f9
3c62e0d8
bb63a7a1
3ca221b9
bc6859c7
397f7eb5
bc82d9e7
3d00a59d
3ad52ddc
bcc1f871
bd03cdbe
bbe38eba
bcf929aa
3c2fd397
3bc3f448
3c69ec7f
bb934e33
bc486682
bcdd2a51
3cf58982
bae2bb60
3b4c7ce8
bd111d16
3ceb9be4
3c38d84e
3c5a8bf2
3cffe18d
3c55b13c
3ce3c810
3cba91da
bc890920
3c386562
bd0a6b92
3c3e8f81
3a95dd63
3c958a00
3ccefd84
bc540388
bcf1d637
3d062d18
bcdf34e8
3bf719cd
3d05748a
bb5ce34c
bc0fbf3e
bad6bcd9
3c86ac1a
bb693513
bcdaab84
bca8c64e
3b058268
bb94dfc2
3b1736e0
3a81bfd7
3c42fbfc
3bf2c020
bace24d6
3ad805db
bc098762
3c28dec1
3ba22ae8
bd06a465
3c148134
3c7938bc
bc78a8f2
3cf6d478
3cbf5722
bcaa9e8b
3cf9e893
3ce6395b
3c602be6
3ca73578
39076393
3ce69b7e
3c49cc0e
3c7e4ef7
3cd613a9
bca2d9a5
bc7eadd6
bc354fc5
bca9c9cb
3cfcc82e
3cc7f8fe
3ccf6da8
bcc5ac6a
3cbb0faa
bc3ef31b
bc9ac57a
3cba79fd
bb332051
bcb2db4c
ba6bba3a
bacb6666
bcc1edc2
bcad1d06
bc8dd8cb
bae2d70f
bcb6f66d
bc9274dd
3c0d3381
3b685421
bc495968
3d03ae2b
3ca2a30f
3c892155
bc5d0967
3b54f9ba
bc1bca2b
3c9bc9fe
bcc42771
3cd42135
bcffd882
3c8ff5c5
bc82e0f1
3c290c3a
3ced0276
3c652aa8
3cbf1d18
3cfb341b
bd04cb15
bcd4b325
3d0261c0
bb101bb0
3cfd03ec
bd0808b8
3d0c824e
3c95094a
bc40e918
3cf7e128
3d00b1e5
3b6a5b77
bcfca441
3c9ad462
3ad95ca3
bcc3e7cc
3c67f7ec
bc8267f3
bc5a2016
3c9a9f71
3c9c97f6
3c3bae69
bbdaccbf
bbf52609
bce35fdf
3c3bc4f6
3cbdec70
bd03c6ad
bb641a13
bbf486f4
bc67713e
3ba22cf1
ba9049ce
bcf37c7c
bc7976a1
bb30eda0
3d106487
bc803e03
3d0864cd
bcce4e30
3cb4e00d
bc388a20
3c484c8e
bcd6ef08
3c6dfea8
bc603480
3c07a2f1
3c6ef666
bd0e576a
3c8b6923
bccf8b33
bcda7cb2
bcad3238
bc7eb293
3cd0a0be
bb1298b4
3d0c8092
bc3c52a4
bd068f81
bc1269bc
bc178ff7
bb7ae28b
3c15a593
3ca7bd88
bc0ad8de
3d0d45d9
bcc08fae
3d04c67c
3be14490
bcaf2906
3ca13e40
3c3eb9f4
bcdc87b5
bcd287a9
bc63d362
bcdab594
bc3a36d4
3c9d7aa3
3c060447
bc2ec16d
bd0bd0fc
3d031d0b
3ca15bff
3c9ce9ec
bce54577
3cd58c65
bcb3db97
3cdedcb3
bcd41a3f
3c992d8c
3c80de59
3c6731fe
bc893155
bced8b15
bcad0ead
bcafc1cf
3d0cbacf
3ce6a20e
3b79e6f8
bc8f22da
3d0e14fc
bcadf703
bc87a3d6
bd0cb9b8
bb57f7e8
3c4fbe8a
bcc64e23
3c6e7cd3
bcb12e9a
3bd47564
3b821980
bc84da20
3c830f77
3cc5257a
3d0a5513
bc6c393d
bb6eb2c4
bcbc20f6
bc57a06c
bce5fb7c
bce588cc
bc92695c
3d0df803
3bf82230
3c6d4bc4
bcc1685c
bb259020
3d0311af
bc55dc52
bd0b0125
3c1eaefc
bcd8e190
3c434ef0
bc5328ca
bcf276ce
bd024a7d
bb95a070
3cbaf542
bb559d30
3a11b000
bcafef1e
bca2425c
3c5cbd14
3c4cc2e8
bc9f4daa
bcce0b58
b9cad080
3ad50120
3c83c822
3cf8f3b6
3ca12cea
3c116a7c
3cb0f8e6
bcb9d1c8
bce3e943
bcca733e
bd012188
3c83bc9e
bc008b7c
bc01aa12
bb6d16e0
badc20a0
bc82b463
3d0f2e99
3d111def
3cf50462
bb2fa750
bc30951c
3bad0828
bd0bc0eb
bcf9c92c
bbe22338
bc6fc19c
bc70142e
bc5ad2e0
3d05e069
bd035d63
3cab7e30
bcaf8a58
bb831438
bc3e2240
bcbb31f5
3d116359
3c6fb4d8
bd0fc60b
3ce960c6
bd0ebf60
3ce386b6
3cd30c6c
bbe7addc
bcf6325c
bbe11c64
bc69c9d2
3caa564e
bcf8c0ba
3c9839be
bcefbcce
bbeef554
3c1e5c74
3ce65636
3ca41ae8
bceb5c7c
3900f300
bbfcd5dc
bb9d5678
bc5430fc
bba197dc
3c5e4208
bbf136b8
3c3b81e4
3d028aff
bc07c5a4
bce0b9a8
3c877ffc
bcaf95c5
3b9f2b28
3c26a5e0
bc9b89a7
bd08a57b
bd117627
bcd9be65
bbbe1cb8
3c53d8b8
3d05df8b
bcd0485a
3ca44ac0
3cea7b8e
bce60cba
bc502c86
bcd3d4aa
bc9059a0
3ce524ea
bc0d3698
3c18b610
b9f91380
bce79fb8
3c9af0ca
bb493e70
bcb3fec3
3c9594ca
bc4c6878
bb7e69f0
3c5de4c0
bcba0b5e
3c1a673c
bc0cb5ca
3d0c456d
bd0acbcd
bc066124
3c9cefc0
bc564e00
bcb163dc
3cfca202
3ce710a2
bc069b80
3bcf91a0
3ccf30c6
3cd8ca76
3c097954
3c380e88
bc403d6a
3caf1342
3c81d9f0
3d0b48c5
3d120cdf
3c651cd8
bb46a3d0
bc5d05aa
bca75593
bca1b24a
bc16250a
3cb213fe
3c572694
bb06a330
bd0a5d07
bcc76125
3c922ae2
baff4740
bcb19063
bce96d31
3cd0bc4e
bbebd148
bb4acb70
bca76283
bcf2fe23
3aa217a0
bc35e1ee
3c7f24f8
3c80192a
3c8e9af4
bd09240d
bc383daa
3cc39e6a
3c9b3cbc
bcfaac73
bca61d2a
bc79d92e
3d0baedb
bd0ce680
3bb8ee70
bb7001d0
3c52fe94
3c84a448
bb5c02e0
bcbeab9e
3b847630
3c8ff9ae
bccc5b0a
3c9c6258
bc655db8
3c9dfc7c
3bcf7ab8
bcb52e83
bc3bfe92
3c832600
bbf4c7c0
bcd4e1cc
bcde0ae8
bbcfe664
3c8b0bbc
bbf16278
3c947f5a
3cd1b772
3c21d9f8
bc71f96e
bce19a7a
bcb85895
bcef160a
bc93447c
3c307610
3d0d8fbf
3cb6b338
bbdd7478
bacc4460
bcee4518
bcf66908
bd03b06c
badadbe0
bcea26e3
3bd12cd0
bd02f310
3c215ac8
3b884ce8
3cc5edfc
bacde040
3c5a1bb4
bca395f5
bc187878
3baea580
3b84f508
3c685d88
3c2ebde0
3cd8c82c
bcab1275
ba8c0d60
bc55550e
bc550faa
3aa23f00
bcc33628
bb37da50
bcb768fa
bc075c18
3b707cf0
3bd481e0
3c8376ce
bd0de28d
b999f300
3b702b30
bcab249c
bbe49c94
3ad7aee0
bc44a172
3cc93aee
3c6d77d4
bd0b2c9e
3b2c3730
bc6f02ae
bc9272e7
bcf4c5f3
3c823fcc
bc20868a
3ccec19a
bc955277
bbf73264
3c143b88
3cc89036
3ac871a0
bcd51b3e
bd0d5f63
bc98c613
3d0c7861
3b089fe0
bcdb3e48
bd0934e6
3cabdd08
3d0b254f
bc67c12e
bcc0e79a
ba93b2c0
3ce3baca
3c8130f8
bcc73b00
3c0bc5c0
bcaaa74c
bc147598
bc3d5b52
bcd25d13
3c7bbefc
bc9ad895
bc94425c
bc8fe965
bcdea7c3
3cc498c8
3c8452c4
bd0185ea
bd04c617
bcd4ece3
bc904900
3ca6de78
3b0b5ee0
3ce5391e
3a805ee0
bc42728a
bc975363
3b318c10
bc6e3a5c
bcd48cce
3cd847aa
bc813e25
bc88bf03
3c965f2a
3c36941c
3ae6d3e0
bd065fc3
bc71416a
3cf1d2e2
bc0a7b24
3c8970ee
3cfe0eee
bce08fde
bd0de600
3a89c7e0
bcbe0bec
3c9d4caa
bcdf747c
3c3b6d00
3be272c8
bc9b2a47
3d10773f
bc5b9158
bcff08e8
bb001610
bc43754e
bb981254
3c7203a8
3ccc807a
bccf9cea
bd04fad7
bcd4e0fc
bcde9148
bcde4388
bcc5351a
3cc14560
bcb00f7c
bce8f9a8
bcc79b9e
bcd33e98
bd0678cc
bc2fa486
bd059b12
bcee19f5
bd0e2fd8
3cfc2e06
3b07e630
bcac9e98
3d0a8cd1
3c402a7c
bc4ca3f2
bd06a222
3c901e12
3d08ec41
3c9f280a
bb716170
3c52f4a0
bcae2f6c
bcd2fa9a
3cf51886
3cc17592
bd095ff2
bcfcc4b5
3c9401de
bd0ea5d3
3d089035
3bfc04e8
3ca07768
bb9c96a4
bbfca55c
3cb7baf0
3ae58d20
bd0ce5bc
3c8db0d2
3b5a4a90
3d106c2f
3ce3a4a6
bb26cf20
3bfbcb28
3c13eedc
3c8c539c
3c0cec78
3c09e200
3c815872
3bc83268
bcfb9ef8
3cd91f78
3cfd7652
bcfbe453
bcd439fe
3d0d0ba9
3d01256b
3c5a9489
bced63b1
bc895af1
bce5ec4b
3c07ae47
3cfc6719
bbf8dbc2
bc2df207
3c6c4a7d
bb73f8f7
3ba5df36
bc2c473b
3cfc66ba
bce0753f
bc985fdd
3c2c3d10
3c8b0e44
3c80453d
bc823895
bb7e5186
bce7d8e3
3c13a507
bc282e2e
3d01abdf
bd08bc4a
3ba84d48
bc8809e3
3b7f4f43
3aa33737
37e5cf55
bb9b5360
3c3dc97e
3857faae
bb494705
bcfec58f
bba28e76
bc00c757
bcdc7244
bcfc8b35
3c0d4091
3bec9878
3ca4325c
3cf886d5
3cc16577
3cc41b13
bc34c458
ba57d8ab
bce8b6b6
3cb0b266
bcf4e13f
bc22c4ef
bcbb80c2
3bfd3a97
3c08c7d1
bcee9092
bc52e49f
3d0f5e8f
bb0e6846
3b426288
bca76432
bc88c554
bba9c1cc
bbaf88a6
3cab5243
bc8dec1b
3d0422f9
3c8de7fd
3d08b742
3bb059e2
3be3fa5c
bd0aa6df
bd07ee3f
3d0c094a
bc72e92e
bd0cfc75
39951da9
3c7fbc01
bcde4f86
bc4e592e
bd0d6114
3c127787
bc55b237
bc9e5667
3d09bf9f
bce61a8e
bc3638ee
bb4ea46c
3bdfe6ae
bc8ab235
3cb5e6a9
3cea0536
bb66930a
3c6b0451
3cf1107d
3d07353b
3ccdd254
bcde1bdd
3b154be1
bcc53bdf
3cafcb2f
bc802bb0
bc490717
3b536537
3cd1e251
bcd55a89
bb85c9fb
bc5d7b27
3c8dcfb4
37a701d6
bce5b21b
bc680838
3d00a420
3bdad742
ba8efe7b
3cf20ec0
bcaba71b
bcebb1c1
3d004f36
bc8c7ccc
3bfcbf89
bd0dd23e
bc3ce6bf
3c242cdc
3ca2f407
bc1dafcf
3cc8e94a
3bafa006
3cd2adfd
bc8d8ed0
3cb90e68
bbc9f099
3c99a992
bc820465
bce35a69
3c82e8a7
bd14986c
bc62c77a
3ce755bb
3c6fb7cc
bd0f3a81
3c5b9931
3cf1a0a2
bcf8c157
3c136a47
3d00a9bc
39adcc4b
3ce9112a
bd0984a1
bb9fcc7c
bcca2251
bb10aca3
bb11c041
bc8cd41d
bcd6a74c
bc9ed294
3cc560d7
3c6fa004
b7725c09
3cbf1d3c
3b602f25
bc904296
bceb8089
bcc1fa10
bb76e638
bce8f482
3c8fbc6f
bc035f0d
3d0fb8a6
bc078306
3c9cd448
3b6af83a
bcc5c191
3d102d5e
3d08e9cf
3b895849
3c2f7322
3ce72295
bba27379
3c144ff2
3bacc88b
bcdcfde8
bc155f77
3c04be88
3c3b7176
bcaf3860
3a021021
bc4a8526
bc0aa37e
bd164449
bcefd124
3cd07d2a
3ad77faa
bcfebfa2
bc48ef2c
bb9433c0
3bd3465f
bb3007df
bcd5af4f
bc2ee2a7
bc935b75
3cd21696
3cd2dc8f
bcf7cc9c
3cfda5e5
bc33fbc7
bafa1ee9
bb22b112
3ccf1ade
3cb8c890
bcd27c27
3cbf6920
bbfe5be6
3b9c16d2
3b3e6e7b
3c2947a0
bca0c4d2
bccff2bc
3c5f580a
3c1a07f8
bd0606ed
3cf3d2b0
3c52474f
3c4007c0
bc3de375
bcfe3860
3b83a908
3be79a56
3c03f68f
bbf33893
bc567400
3cf38b21
bcde320e
3bb762aa
3cc0b8c5
bd00dd8e
3ce2a980
3c60159a
bc9cf30d
3d05a148
3cae3c0c
3d091506
3cd85132
3c0e5932
3bdb81d1
3bc966e6
3ca2f7cb
3be620a5
3c9ce446
bc2d7d10
3cecc49b
bce5840b
3bb9db73
bcb94b47
bc527d5d
3cd5dc2d
bad60927
3cd490ae
bd0b9a50
3c84f468
3cb1a98e
bc4c505f
3c6bbf4d
3ad4e2cf
bc5e8c05
3d058c93
bbb675e6
bcafae05
3cf21530
bc81fb43
bcb7237b
bcfff966
bbaf4753
3c07c21b
bc97de9c
bca381d8
3cb7b40e
bc15add9
3ce1260c
bc8ae48d
3cfb6715
3be1072f
bcd71c99
bd02d8f2
3d0832ab
ba178048
bb1a8615
bbe500d3
3c4d7b22
3c6c642a
3c43373a
3c25f1ad
bcb5edfb
3a76c062
3c1f94bc
3c3d1777
bb68308b
bc3e14ed
3cd81fa7
3ce1e99b
bcbc537e
3a8a54e5
bcd420af
3cfdeb48
3ca6ab33
bc49ebb1
3cbb157f
3c7b3ea7
3cf17480
3c82366d
3cfc2fe9
3cb4d594
bcc25971
3cbedb86
bc85ad7a
3cc0c07c
3d06eeb1
ba124a00
bc58dc12
bcc3c4d5
3d12aec1
3ccd2b3a
bc8c187c
ba900b20
bcfe3a37
3c077997
3c880788
bc0bd439
bcb2cff7
3b181199
bce6e4c0
bc718c4a
3cc8a3d8
3d0f54c5
bc914a32
bca7d4dd
3c4ae289
3c777c4f
3cba5727
3a87f881
bc377e13
3cdb595c
3ce8bd6e
b9490dca
3b38871b
bd096fda
bc5ea540
bcf85cc7
3cb3141a
bb89d2c7
3ca15191
bcec1890
3c333aba
3cddff5b
bbbbf9b2
bc07196b
bd0d30b9
3c8f9db0
bc2dfcd2
3cf1e7fc
bc7cfd81
3cf45e48
bcf69fb7
bd09e324
3cf4b7cb
bcff091b
bc27dc2f
bb2c42e5
bcb7e47d
3ccca9a8
3d0758d3
3b04b592
3d0a2cc7
3b744746
bc43df60
3d0873e8
bcd908b7
3c61c3c1
bc94ece0
bca80084
3cb458de
3d0f130b
3c655bab
bac4ede0
3b83003b
bc952866
3c91b152
bca38a6e
bd11265d
bd049415
bc12f2cc
bc38a8b5
bcd3dc29
3c54f629
3c278c7c
3a056220
3b7ac545
bc730c49
bd01d3b7
bcbe8bd8
bc3e8c9e
bc4c8220
bcb75b83
bc7cae46
bc990bfe
3bdddd78
bce79c0c
3d0960d7
3c3d01f8
3cc9dac0
3cf5e17e
3cddb77a
3cf3ad22
bc0e183c
bccf3440
bacc6c00
3d0b1211
3d11e323
3bbed7c8
3b8b88d8
bca71a68
bcd4465e
bcb0018a
bca0a76a
3b3eb820
3bfc5960
bc08c338
3b2db4a0
3c99ebc6
3c00fd60
bc15026e
bbfb72e4
3cf1fc32
3cd3312a
3d00c323
3cbee6ee
bcac66a0
3ced85b2
bc95c01a
bc8df76e
3ba61480
3cdb3acc
3ce74b7e
3a01fd40
bc90f28e
3cbff0d0
3a609840
3cb61d08
3c235a20
3d089467
bd042d0e
bcd34a15
3cd70d2e
3b302710
3d0bb141
3d104623
ba61c880
3c61adc0
bcb4457a
3be57548
3c92e13e
bd11104c
39da4d00
3b2583f0
3d0d0629
bc42eec0
bcfc074e
bc05a712
3cf04fc6
3c11b7f0
bb168a20
bc298aa0
bcb830ca
bca1e7c3
bcea3a0a
3cf93b5e
bbf34170
3c818f34
bc6e636e
bc2c550a
3c803238
3c6e0bbc
3c24b060
bcdeb5ae
3b9b70e8
bbede5f8
bc8685ee
3b4cc650
bbde5de4
3c33ba48
bbf86a88
baa8fd00
bcda23c3
3cfc5696
bd0bf420
bc44f4b2
bbdb9130
3d0a81db
3c1677b4
bc6e4f60
3c925f8e
3bf60728
bc422512
bc172a60
3c91ca6a
3c0f5c94
bcef01ea
3c3f74a0
bbf08bb8
bca5a0b5
3bf28528
bc167a66
bce2d02c
3cf0bbea
3c86670c
3d0925fd
bc6506f8
b9c52400
bd05dbfb
3c39a784
3c1dd7a8
bcd5c85e
3ceb9146
bcc7d750
bcd0f800
bc3f6052
3c8f46e8
3c2f2c64
bcb80f4e
3d0a8a8f
bcc00965
3c75c990
bc9108f5
bd02e3c3
3ce19f46
bc862daa
3c9c7ab0
3ce24d9e
bccdd118
3cdcd646
3c9915ae
3cf96a66
3d03ca8f
bcd1ba9e
3c573424
bcc9047a
bc6cdc80
bceb5e75
bcb6f3c8
bc21133c
3cc546ae
3c289d80
bd033545
bd1083c4
bc4005d2
3c3dcfdc
bc7eb118
3ccebd8c
3c5210bc
3b9a88f8
bcd72d0a
3d03c791
bc07d55c
3c8c05b2
3a9d0960
bc0f848a
bcdbad63
bc9c00d5
bcda761a
3c4b8fd8
bb2d6530
3c548a44
bc03bb20
3cb4f1de
bc20d032
3cc3a0b2
bc2c14c0
3cbcefaa
3d015e59
3d079d2d
3bdeec20
bbef9b78
bc06a12e
bceda35e
3d05e367
bca2d36a
bd06379f
3cc295ce
3c2ac738
bc90f1dc
3bab4e78
bbe99088
bc697cd2
bbb4b1b0
3d003169
3cfa94f6
3c8a2132
3bf81890
3c8e7d32
3cff8d9a
3ca774dc
bafc85d8
bcce2ae9
bd106c13
bcab53d0
bcecfd8c
3d0c6f72
bc2e53d0
3bd4c898
3d10525a
bcccfe77
bbb7a816
bc512b7c
bc1e418c
3afbca3e
3ca715a0
3be0d7c6
3ce354f6
bc1ad6fc
3cddb547
3cca536b
bcabd29f
bcd38632
3c3cf4b3
3c4d1028
b98d940a
bc40f41e
3cacd300
3c8ab079
bd0ba2be
bb4cfedb
3ce1ed26
bc065f64
3c944cf6
3ccb9d05
bc9fb7b6
bcc201f2
3bbe9d11
3d0e469e
3cf9fc27
bc021d2b
bc932c8d
3b3a139d
bc42d803
bc0a361d
bbcea2a0
bb8dc674
3cf9bd20
3c98b0a6
3d015f2b
bbc1922c
bbffa23c
bc63c17d
3c8178b2
3a11bed4
3c06a8f4
bc1311b1
3adb8743
bcf3d884
3d105f73
bcc50bb8
3b35f80c
bc95f926
bc5d4223
bca72161
bd103789
bc65f532
bb91d57b
3d120bf2
3bf085c5
bc715596
3c81e4c8
bcb3abe0
3c89f993
bba3542f
3c841910
bb70389a
bca12e93
bcf45cc4
3c8a82ad
3ba9d980
3c82a593
3d07431e
3ccd0626
bce53241
3cca207e
bcb2e435
3b14ef60
bd0effab
bd03e9ca
bd041483
3d098c07
bcb06f89
bc860c43
3cfe5e66
bd0f0833
bc29e8cc
3b8c4ca1
bc36617c
3cf4dcfe
3c4c0747
3ce5d50a
bcfa783e
bcb46836
bce764a4
3cea6f3e
bd00cd43
bc65f806
3bf6b8f8
3c0e755e
3c84d717
3cc3adb5
bcdcd8b3
bd017a9c
3cc41dd5
3c7ec6be
3cccfbba
bc040432
bb5f958e
bd0ac903
3ccf79ad
3c481c50
bca7e3de
baaa11d4
3d025ecf
3ce3ee67
bc0a27de
bc5d4898
3c6ab324
bac4d4e3
bccae781
bc3387db
3c9e4db1
bcf8f335
bc4311ec
bc8f98c2
3cf4fdd7
3c9492f8
bce09b47
bc929775
3c53c59b
bc55f93e
3c5ffc17
bc8e44c6
bcd5f0ce
3ca50c01
3c85d747
3cc42e6a
39177481
bc4745d9
3d0f017e
bc3c8cc6
bc828044
3c8def42
3c89f565
bcbd8138
bbb920d4
3c2ce4ab
bd0bbb41
bb552bce
bcfd16ff
3cbb4fd4
bcfe01bb
bce99538
bc0a85bf
bce86d4e
bc71ab4e
3c82e9e6
3ce67460
bcfc3838
3cd116e6
3cd3cc7c
bd089702
bc34c379
3ca7d07c
bc03f004
3cd7bc3d
3ca3c537
bc9290c1
3b9a491c
bce104b3
3c90b1cf
bc1a86d0
3c1987f8
3c6aa3bf
b89df5bd
bc8389b9
bc057795
3b97e981
ba3c78f0
3ce627a1
3d01260b
bcdc1739
3cb2c172
bb90ca70
bca6f071
bc7df892
3c1c4694
bce73b32
bca0cef4
bce46b7c
bcb487ba
bce07805
bcfb1171
3cacee08
3d0b10ea
bcf505f0
3cfd5e38
bcea9205
bb7ef91d
bc498637
bc326d41
3c85ada7
3ccebc46
bca02117
3cc45940
bca30502
3c87c0a8
bc187fc8
3c3562d7
3d068e3b
bbb73cb1
bcfe602e
bc89f2be
3b97ff5d
3cc4868d
3b28c794
bc2419c6
3c58a4c0
bc912427
3baf484b
3c941a40
bc3ba056
3c9014b8
3d0960a9
3c192eba
bb544b85
bcd984dd
bce91791
3cf99ca7
3bc1a4e9
3c27bdd0
bc421bbb
bcbf651f
3b526300
bc8ac9a1
bb344f66
ba6a331e
bc670058
bb813bed
bcdcbd4b
3c966493
3d062d9a
bcba7dc7
3c03c6d1
3be44820
bc13e739
3c56b7eb
3c71f70a
bbc40c3f
3ccbdcd6
3c760b0a
bc7511a8
bc6ae095
3b9e2476
bac536ad
3d056244
bc0abe11
bc66c875
3b993acd
bc3f8e7c
3cd37ec4
3b9aa385
bc1d0247
bcd700b7
bb0224fb
3cc432f5
bcea216c
3b573740
bc3985f8
3bf73a58
3c2cc406
3d0630bc
3cf70972
3bd92e49
bc8c1597
3c501d8b
3a000e5e
bba3539b
bb1cdc7c
3be6c93b
3c5a907d
bc992bb7
bd091d66
bcd95895
bb0a7d8e
bca5ebe3
3d084212
3c024a82
bc21fb6a
3cb31d0e
bc7ee708
bb87e6a3
3c840a72
3ccd599c
3cde154e
3caf1e61
3a99b4ec
bc5225d4
bd0b88c8
bb303b4e
3c2ee07f
bcb8974c
3c0d4cec
3c91b177
3ce82afc
bc4d6c86
bb0c2b60
bc45dff2
bc12c3b7
3d0a8af7
bca695ed
ba7cd584
bc1804f7
3c0fadac
3c40cf03
bc77a9a2
bc34cb00
bcc3ee69
bcbda11e
bd0ed54b
3d0242db
3c70988c
3ca58b82
bc7de8e0
bb932d81
bd05c2ba
bab7aef6
3cb606b7
bc571a50
3cc31a4a
3ccae05b
bc86e938
bc7bda43
3c99de95
bd0ed903
bcc29206
3c8a6a48
bb728c56
3b856b4b
bcbf0c09
3c88a615
bc124717
3a4852e9
3c8044a5
bc25e90a
3d0763b3
3bd707c7
bcf391b7
bc3575c8
3c6e61d6
bcb5f9b0
bc952fab
3b79ff1b
3c9c0499
3c30e37a
3c9796ac
bbc7ce47
3c9bb1f6
bd106220
bb65caee
3cc5eec8
bcccc8f2
bcc925b7
3cdbe702
3cdfc366
3c47ed76
bced3ca5
3ce9dcb9
3d0ca19f
bd06d670
3c8c1347
3bf84643
bca9226e
b9986c63
bc32591b
bcb1175c
bb8882f8
bd0aead8
3d0f6e91
3c06a174
3c8d200c
bca7f307
3c548a1c
3bfd73f8
bcadeaf1
bca30403
bcac097b
3c894ee4
bcd2d987
bc9ab147
bc0f33d2
bc9333e3
3d0bb91f
bab1db20
bc901c1e
bc472586
bc75d706
bd04594e
bb018df0
3cdbb6ae
3cb65ab0
3bc0ae78
bc61170a
3c5b1a90
3caa75b0
bc4df9a6
bb8f9780
bcb2d8d0
3c66df1c
bcebf2ea
bc080ea0
3ba640e8
bd0a509c
bcd87b38
bbddb3b0
bcd6164a
bcb3941a
bcf089d5
3cad82c8
3d013b2d
bcb7616e
bc4e133c
3c79f840
3c498658
3c5c7050
3b5f35d0
bca2f8ea
3b124560
3cdf0b36
bb78c2f0
bcd4caee
bbcaf8c8
3cd734fa
bd0a81e8
bce5a5ec
3cdb4af6
3c5fea64
3ce1df52
bc8c448a
3cf662ee
3a745ac0
3c5d9564
bb3f5d60
3c4bf8c8
bd0593b0
bcaf88f3
3c44f9c8
bcff8981
bc17e860
bbc242dc
3c51fc40
bce97351
3cbb7676
3b0147f0
bc7886fc
3cd133ba
bc96d473
bbd62530
3abfebc0
3c4efe40
bb531c60
3cc9e186
bbade024
bc5c5d0a
3c37cc40
bc63a458
bc9bf7ca
bcb7558c
3cc7c350
3c2dc09c
3cee99f6
3d0dd27f
3cade3d8
3a98b560
bcc8082c
bc9c377c
bce7dc9a
3ca46fb8
3b6db400
bb22aeb0
3c4f3050
bacf2220
3cc1229c
3ccdd036
bccaf6c5
3bf7f200
3c2feadc
bccd45b0
3c39fa60
bc486726
bcee2b93
3c9e3f10
3cc6452c
3b67ad00
b8a6a200
b9d8ff00
3ca0ab18
3c9c2660
bc24fa8e
3c7493e8
ba08a2c0
bc90b71e
3aed98e0
bc9dd5f5
bd0a0f28
3b6ddbf0
3ce2b312
3c32e618
bd05d60f
bbec3e70
3bedc2c8
bcc8610a
3cdb7bde
3c2fe934
bc6a11ca
3cae671a
bcc56968
bb2db260
bca7e170
3d10d70b
3c9c8102
bc789f8e
bc075d8e
3ba46688
3ca6b2a2
3c8ea9f4
3d008225
3d05fc31
ba818760
bb5e38a0
3ccf629a
bc46c666
bd01c4d4
3c853f82
bc4bd8f2
3abf9120
3cc502f6
3b0f02f0
bd050287
3c9c0c48
3c327f58
bbdb8978
3d0ff681
bd0e872c
bba96494
3b3fea50
bc7b742a
bcf019ae
bc2c8440
3c8a4d20
bc0c3d4e
bb6970f0
3cb8869e
bcbf055e
bbe27494
bc322cb8
3ce42b46
3ca1b450
bc413d3c
bd0930f0
bc9c1350
bc9370ec
3ce3ebb6
3d096fbf
3cab7036
baf01520
3cf22a62
3afb3600
3cea00ce
bbc57dd4
3b56b300
bc5d6b52
3c76ac44
bcfaf89e
3cebcbfe
3cb16382
3be05a10
3b309780
bd12211a
bbb2f354
3c532018
3b893178
bb87c440
bb729a80
bba9b454
bcd74355
bd061fea
3d035725
bb4320f0
3c701c84
3cb51b3c
bce01f1c
3b5a45e0
bccc0135
3ce148ee
ba8821a0
3cfa50ae
bc6ad232
bc31b120
bca9acd0
bb18e1b0
3b123420
bca1e200
bc806147
bca38647
3cf9b54e
3ce31732
bc73d9c6
3d0c7ab1
bca1feb5
3cbb8cc2
bcaad05c
bd08a173
bc40c20e
bc1954dc
3c6a5b78
bc882783
bbcb4a30
3d02cba1
bc08a4a4
3ce24b6e
3c9628ec
3c6cb430
bcd024be
3caa8bc6
3c82142a
3cec3036
bccc7d50
3c7dd584
3af3d2c0
3d066cfd
bbbc13a4
bcd74a4a
3cd7acf0
bd1133f3
3d0873ab
3cc0d76a
3c0b3168
3d0da3e3
bce256a0
bd115267
3cfa76ce
bd015d13
bcde2f1c
bcb2362e
bd02f665
3cf62942
3cb9e282
3d0d23c1
3c9f6378
bce7eb7e
3b7ae280
bc593912
3ca8a5de
3cdd7bc2
3c384344
3bd7bf38
bc602e58
bc6e22dc
3ce4d6d6
bc10c6d2
3be86688
bc650758
bcf37455
bca6652a
3b97db38
bc9b9545
bc85029c
bc980167
ba962c00
bcd90e70
bcaa6670
3bee3a40
3cf26342
bb05bb80
bbbafe40
bc139eca
bb5c2ed0
bcc64e3c
3cd0cc60
3bf23b88
3cd76dd0
36de6000
3d0a8d4b
bc98b380
3c6d6b10
3c5eabd8
ba8e4b00
bc6871e6
3c09cd3c
3d107c2b
bb9ee170
bcc192a3
3c913970
3b86bd10
3a20c080
3bdbcf40
bc8bad85
3bb57e70
3bb9eff8
bcc4e315
3cc85fe8
bb1b0830
3cb1d16e
bc35d2ae
bb7db290
bd04e198
bc17feaa
bc3c3980
3ceb03ce
3c6b497c
bc70d40a
bb058650
ba6f7d40
3c0c66a0
bce99b7c
3c0c80b0
bcf81d1e
bbf31554
bcecdf78
3cd4991a
bbe416f0
3c8950f0
bcf1b30a
3cae1ce0
3aa39220
3ca11f90
bc83fb7a
3cc0c510
3c8bd4b0
3d027347
bcca049c
3c12cec4
bcb11ada
3ce79b96
bc9992f5
3d11ca1b
bbcec208
3a472200
3d098887
bcda6153
bd0838f0
bb367ca0
3d0059df
bc9b2ef5
bca660de
bc797374
3c7ae960
bc9be22c
bcff77da
3ccb99b0
bce6481a
3ae3d540
3c7a65a4
3cd3144c
3cdf561a
bb63a550
bbafae54
bbf466b8
3a79a600
bb195770
bbf1dc88
3caf331a
3c3ebe98
3d0cdfb3
b9d9f800
bb4d4cd0
3c305918
bb057a30
3b134590
bc4e9cfc
3c681a3c
3c6d44b4
bcd5e3b0
bcc0a54a
3ccd272c
3c6fdf1c
bcbb6f73
bcd70ddc
bc1c4b38
bc04b9f8
bc9c93e7
3cc45a88
3c335750
3b870c70
3a173680
3ae66cc0
3cb8a360
bc2b1392
bbc399c8
3d001d69
3ceb26ce
3c594848
3cbb1270
bcf91f11
3ca6fb6c
bd0d9db7
3c63e6b8
bceea353
3cc4fa8c
bc0b8420
bbdcf21c
bcf2e218
bce90681
bba30cc8
3caddc82
3cac3098
bb1f1de0
bcdd8b38
bb9b7288
bcb35c53
3d034225
bcb385d0
3be1aac0
bca28747
3c087918
bcd413ea
bb146120
bd08b9b3
bc6515f8
bcff9f45
bd11a52c
bd0e2ad2
3c3fa530
bd098694
39850d00
3c5bff24
bbef3c78
3c3a7e48
3ce2b492
bcb4539c
3d081533
3b16fb60
3c83e29c
3c00d140
bb6f0110
3c45e720
bb68f0f0
bd05203e
bbfbe1dc
bba6021c
bd0b7c77
bc81e6e3
3d059d7b
bb4dbaf0
3cb573d6
bcf691d3
bb6ce610
3cca75be
bc072680
3c7e2c84
3ceea912
3cfd0786
3c164c04
bba31d9c
3cf2b27e
bbdfeb88
bd089a5d
3c6696d0
bcc90d4a
3bd35068
bb476a30
3d033dc5
bcacf863
bb186470
3cabf25e
3c199068
bcaebbfe
bcbcc573
3cc820dc
3b283b30
3d0f33c9
3d05d4a9
39aff700
bcce396e
3b4ef100
bcfcb68a
bd07c3aa
3cb45c38
3d0f4e8f
3b152bf0
bc365baa
3cc23eb8
bd051f9a
3cc658bc
bcf95a85
bbc7b448
bc60ed78
3c217288
3cf1025e
3c3cf81c
3d08f683
bc11283c
bc9abf83
3cc18cec
3bb18010
bcfb7005
bcc762ca
3ced705e
bd0198a4
3c9135f0
3c69a250
bb81cdd0
3b62a160
3b500df0
bcbf8328
bcab822a
3cfff742
bcbf2dc0
bc9680dc
bc4690ea
bc8e22a7
bc885d0a
bd0373d8
3d08de9f
3c1b0a50
bba5b0a4
3cf2cdce
bc955155
bba27324
bac617e0
3ce58c02
3c94f4da
bcaaf8e8
3ce4bee6
bbb396a4
bcffb425
bd01f1ec
bc16626e
bc95fc1e
3cbf458a
bc86ff73
3d07fa59
3c838b24
3cec9cb2
bc8bfe23
3b9962f0
bcdabca5
bcdbfbe0
3b3cb9d0
3d090ad9
bbcb4f30
bc883907
bd1100f5
bbac2c80
3c89baf2
bcd75c2c
bccd2088
bccb879c
bd039663
3c04f260
bcc80425
bcb66e1a
bc1297d8
3cf63462
3c8edc34
bc7f1560
3c4462d8
bd0753e4
bce623e5
3c9be51c
bc307a98
bcd9dc2e
bcf51cc5
bbc9ee48
bc71daea
bca00587
3b195ca0
3c8c932a
3be68100
bc081224
bcc76593
bbda5854
bcdd15c8
3cb44c40
bcd2f7ba
3c876a74
bc012fd8
bd04739d
bd060b87
bca3c96a
3d01f87d
3b1630f0
3c997ae8
3d0d106b
bd1040de
bc3298a0
3cbbb9b2
bb14e310
3d076be7
3b87c92b
3c2370a5
3cc7be51
3b4cd4b8
bcb9b870
bc8e2d21
3cedafd4
3c45263f
bc0dfbc5
3cdb506a
bce354ec
3bc8a1d1
bcca637b
bd088c1f
3c598d16
3cbe2d65
3d00f065
bcf9f555
bb377253
3ad565a6
3bdba14e
bc4fd5a2
bd026d7e
3c0f5192
b9a4189f
3c4893cb
3cbaa6ba
bc2395de
bcff12bb
bb76fe1c
3d00c991
3cdf3dec
3b68d0e2
3c322d70
3cd11126
bc9eca76
bcd2ed23
bbe8f89d
3cdcdcbd
bcc79dde
bb8433e2
3c3168fe
3c2a6987
bd02203c
bcaf4609
bcce5069
3cff6132
3cd7e654
ba99894e
3cbcd39f
bcfa70c2
3b551406
bca1efd0
3a84e9f0
bb88b6fe
3b4a3923
3c277267
3cda9c43
bd0112fb
3ba278f8
bc1a03a6
3c9154b9
bcb9b4b0
bd017c06
3c90803f
bc70005c
3ca590be
3c31c647
3cee49ff
3c5228f4
bb58cf7b
3c0a72ae
bd134c17
bba2c84d
3cbefe09
bc94e08e
3b0f83de
3cb05996
3c89d233
bd0a4c99
bca79182
bcec0eb0
3ca615ba
3cac5214
bcc618fe
bc8f5997
bbf2581f
3ce0925f
bc97eff9
3bbf73a1
bcbf3281
3aeac967
bcc5c6d1
bcdb2d31
bd0a0206
3d0b2d5c
3cac24b9
bc80d4f3
3cdc39a2
3a9ae862
3b3008f4
bb97ae47
bab1fcc8
bc0dc92f
bcbcaf58
bce80c0a
bceb2076
baa1d1cc
bc590e04
3c1935c6
3c37332b
3d045670
bca00778
bc98177f
3c00e30e
bb98cb55
3d0adb23
3bbc25d4
bc6bf2df
bca6d3b8
bcf3fe4b
bb0295da
bb39682c
3c0d142e
3cada269
3ceb9b3a
3c61eabf
3cdefd15
bc46757b
3c8bb66e
bcbaa411
3c33da0d
3cfbdb05
bc9bb979
bcd0c4e5
3cc67f0b
3c98c0aa
bcc78320
3d0171a5
bcb59a73
bcb8fe8e
bc96b1b8
3c7b3512
3bbd58b3
bcaaeb7a
3ca43ccf
3d031114
bd083907
bc981934
3cd3935e
3c17e57a
3a92af40
3baf42db
bcbea1c7
bc317fb3
3bc35869
3cfc51f0
bccde247
bca9228d
3c962979
3bbe56ab
bce75dd5
bc0b371a
3d0a0e32
bcb858fe
bc8be2fd
3c31b873
bcbed409
bd03be2b
bb91c9dc
3d09760e
3b2b4664
3d0b97f5
bc6b3b5d
bd038bb1
3c7686fa
bab90447
3ce5fc38
bcdaff84
3cbb2c48
bd11337a
3cc1789e
3b5828c5
3bf722d7
3ce563e8
3bf00175
bc187aa8
3d0ab39c
bbb6fd28
3d0656fb
bc9e5f00
bbbb51b0
3d0153f3
bcc2ed38
bd08b8f1
3d03144d
3cee314d
3bbaffd1
3882ce61
bc750a86
3cdca409
b5f795cc
3d06add7
bc58d14c
3b7114c8
3c6ae72c
3d107a58
bb5c9113
3a6fadcb
bcc4d1c5
3ca02e84
bc8865a5
3cb203ec
3cc29717
bcc48bfe
3d00860c
3d0a07bf
3c979af1
bcc9bcb0
3cfe4a49
bc825b44
3cebbd2e
bb41ed8c
bd0db3af
3bc397f0
bac61636
3c120614
3c441beb
3cd2490c
3c9c829d
bcf3c700
bb754a97
bb45d41f
3c95ec2a
bc974534
3d019131
3ace0639
3c5b5178
bcdb150c
3c54c1f7
3ca17df1
bc25156c
3b87911d
3cacf3ee
bc857cb8
3cce9f1a
3b354708
bd09c4c6
3c894e15
bc7c1a5f
3d0dbcb0
bc966399
3cc58288
bcc70521
3b9673b6
bd05402e
baa6bde3
3c7f44bf
3c3af58f
bca633ed
3ce59b0f
bd122c7f
3c9828bb
3c8005d7
bccb6bca
bced803e
3c0036b5
bce17c1d
bc0b5f31
bca87bbf
3cf20a0d
bc75b5bd
3c845a2b
3ccbed3e
3cef5338
3d0f44be
bc30e94a
3cd4452c
bd0f2e28
bc5222b0
bcc6bc2f
3c510fab
3ceb011a
3d11efdf
3cd06714
3cb05dab
3cb51d01
bc41d8f0
bbbfc202
bc03cd5b
3c1098e2
bc9ed2f8
bd026ae4
3bdcf387
bd062196
bcfb49fe
3bfad4d3
bc58106a
bd0605ec
3c371a28
3c64ce0d
bcb9048e
bc578dbe
3c58449e
3c5cfff0
bc0d5cd7
bc92b284
bcc30b94
3c1aea11
3ca36ea3
3a94fb37
bcd981f4
3d0548bf
bc875432
3bbc7360
bc62e6c1
3be3aaa8
3cf72d6b
3d062714
3cd6cb13
bcebd70b
bc19a0b4
bcd79e0c
3ce1a6c7
3cc041da
3c124213
3c9c336c
3cdd0930
bd04ec6e
3c555754
3c1d96b9
3c994028
3cf9683a
bd0a21e5
bc952ab4
3cced1f1
3c6acfc2
3ce8b4b2
bc116c67
bd02aa95
3ac8bb17
bceac961
bcac09bf
bcceb50a
3cf29519
3cbc5139
3bb9d4a6
bcf06e7f
3d0cc361
3a1ae41a
bd067a5a
bc3c3856
bcad8bca
bcab87a4
3cba8c68
bcfdc3ac
3c58f828
3c4b7673
bc2e2cb7
bd117245
3d007cb5
bcb5d7a8
3c5849ee
bc1d1fdb
3c9ed5ed
3ca9b6ab
bb9b0da7
3ae7801e
3ba19cf2
3c607071
bc885062
3c81a25b
bc86cf59
bd108ce1
3c6947e1
bc7d7d7f
3c98d5ec
bc67ef5b
3c7c3c5e
3b7dd159
3bff823b
3ad16021
3c8e9598
3c97dd55
bcb7ed6d
bab189d8
3c0766dd
bcbefa73
3ce3b551
bac83cc6
bc987767
3c10cdf4
bcf46ca1
3c8bee90
3c1829ca
3ac4302c
3ccdcca5
3b16c561
3c3e9419
bad8bca2
bb6850ea
3b5d696f
3d1070ed
bd0ccf07
bc9262f1
bcefc561
bcbcb5e9
bc8f1e09
bcca957d
bcf55148
bd04a4eb
bc8a91df
bcee071b
bc756d58
3cf07873
bc3f6922
3c10e874
3d0c2712
bc991553
3baec5aa
bce40f50
bbe41c65
3c0af37c
bc5f46bc
bcfd9bde
3ca06110
bb44eaae
bc32160a
3d0086f2
3c86c1a8
3c9323d7
bcf86cf1
3c9d04c9
3c5d9f98
bca191d3
3a10bb5f
bc129b84
bc638cca
3c7f8c5c
3d059714
bc8620c7
3ab55110
bb8f4524
3c3c3a72
3cd20538
3ad21165
3c848fa8
bd0dbb5a
bcd46646
3d047dc3
3b0ada8e
3d019d5c
bc89a4a7
bc923a07
bc44e7f8
3cd1821e
bd0a42b4
3cd0c566
bca895bf
ba8fbdb3
3ce0ea87
3bb8a314
bb5ef721
3cdeb0b9
bc16f55a
3c16c537
3d007c12
bd0edeb7
3c59e43c
3cdeba54
3ceea523
bcda28e9
3ce532aa
3cb4e4f0
bb8b9dab
bc4b6fa9
3cf986b6
bc9c3cda
bce6b83d
bcab0e30
3d0dd860
bc3051c3
3c9dc84e
3b990450
bd02bb6e
bcbdc896
3c8b14c1
bcd4cbff
3d0e2774
3cfe57b0
3ca25ef0
3d0e779b
bc53f6f9
bd047c06
bc0cdfea
3c14d7eb
3d070f56
3c08a968
bcda7021
bd0440e6
bc9195d1
bc0dfdf4
3cb8ec78
bc160b13
3c93da8b
3c0b8591
bcda454f
bc3ce996
3c16d3e6
bcead1c0
3ce18dfa
3d11093d
b87dfea1
bd0d33c1
bd10bff8
3c418690
3b4a141f
bcf8f5d9
3bb9cd58
bc60f618
3d156ce9
3b63811a
3a6524c0
3cd74236
3d05015e
3d0c5d93
3c954f24
3c139cd3
bca7e337
3cb3dd10
bc24d197
bcbc060d
bc453263
bcdaac5c
3bf6f574
bc6fd038
3ba52aa0
3ba51e8b
3ce80b57
3c1477a2
3c41bdbf
3af46a54
bb9345ae
bca75206
3cb5b989
bcbe8f69
bcc0d8c2
bce489f8
3cb11305
3c65ca5b
3b26875d
bd1138af
3c8f95cf
3b0934a6
bc312dcf
bd0b7052
bcd2bb27
3ca3b4b2
3ce16260
3d0976f5
3c9a20bc
bbbe8384
3b68e590
3c258d55
3ca5ff1c
3cffdd5b
bcbe669b
3aaaf86f
bbc67bad
3cf4ec4a
bc61aaab
babdd117
bd06c88d
3ab4570f
3cf1472b
3bb81875
bd0ed0e8
bbb4245b
bca63b40
bd084f36
3c131fbf
3cce756d
3caeab1c
3c6f40af
3c8ec330
3cd4a9fa
bbc8a829
3cf1c399
3cd78768
3c0d50ac
bcf18457
3d0b3e7b
3b684cb0
bcf5ec0d
3c9dd60f
bc9ae37b
3cab2dcd
bcd48fe7
bd11aaa2
bc9bb46e
3c1a9834
3bc7b847
bbabe009
bc0e97b9
bc95c22a
3bbeb96c
bca3483c
3bd8f935
bce3460b
3d04cba8
bcd3a3c4
3b307bb9
bc5f4a5f
3ccb020b
bd057955
bc1bdb56
3c822bee
3c99b130
3cfe17b2
3c2584f1
bc9488c1
3c97e05e
3c60fd93
bd066630
3ba143bc
3c2d4858
3c8ff9e8
3bbffcbf
3c556dab
3c09b91b
baccee08
bb12f398
bcc2f189
bb635885
3d10e62f
3b95d329
3ca04c9a
bd0df55a
bc108040
3b885370
3c6795b2
3cf3ea2a
bc24fc59
3cdcf32c
3b78c419
bc01e688
39c5e26d
bd032068
bc7c3d85
3cb2b4af
3d005289
3d08f1ac
bc30babe
bcff6a8a
3b46c0d9
bb81657b
3cecfe42
bc2e7f64
bb62c1c2
3cdb6ef7
3d00aeaa
3cfb0993
3c555a0e
3b041c23
3d0a9772
bc809f8a
3c8842d0
3d00d043
3ca0abd3
bcc0c166
ba2a85d4
3c0ce254
bbda39e2
3ce9661b
3cd272eb
3ab2c60a
bcfec59b
3cc203bf
bd026ace
3cda4ea2
bb53e08d
3cd8b579
3cf68982
bc4a7626
b942ad73
3bbe18a6
3c586d91
bad53f8b
bcb2c4c9
bd0f3b21
bba4bec1
bb1ab69d
bc95c4dc
3c94a8c8
bccb392c
3ca40aa8
bd0565ff
bc824436
3cf232ca
3d0b56b9
3c627bc8
bc96fa9c
bceff1f3
bc6be877
bacfa28a
3cd3ca07
bcf9d735
3baa4685
3c72920f
bcbd349f
3c8d0a00
bc5bf23e
bd010c68
ba9e199d
bc729f54
bce8553c
3cbc3f72
3ba91594
bcfc3a7d
bc4a5fcd
bc0fc51b
3c78ce00
ba5339da
3c68e788
bcada5f3
3ce02ba5
3ba3b005
3cfc6b22
bab3224a
bb859810
bb2ef2e0
bcd3a07f
bb84da69
bc809688
3c776e9b
3c46b1bc
bb89f458
3d054dfa
3ce3e80f
bcecd0ca
3af890a3
bc6c8af2
bd05ef8c
bc2c00b7
bd025b77
bac125bd
bd02b01b
3ca34396
bd020100
bb74413b
bc2ca0dc
3cfe3d14
bc152cfa
3cfe27eb
bc65fc56
bd019d29
3d0b0862
3b562496
ba296549
bc6415cf
3c2db4bd
bd0e43b9
3cd14842
3c9c538b
bd02be97
bc3b68c1
3c431c81
bbada2a8
bc5c520b
bc5c0994
3cf4d984
bc16b798
bc77e4b2
bb119517
bcf6f2a1
3c209127
bbe86db0
bc3866c2
bcd077e8
3be03878
bc226a69
bcb2f69b
bd053262
3cb21bda
bbf3b39b
3ca254a1
bc991934
bcac79b5
bcb9cddc
bcbfcc7b
bc9fc42e
3cef0872
3cc80d2b
3c379c5d
baf6e33f
3c17ac41
3d002e74
bb3f26be
3ce186da
3c8fd90a
3bf8b8c1
bcb4037a
3c80b715
bc098d9f
bbbd316a
bcf6ddcd
bc959562
bc8fb84d
bcd34308
3cf35274
3c87fe20
bc3b37de
3d04211d
3c854dcd
bc585402
3c6de774
ba8cffe0
bd00a0db
bcbfb8da
3cc24678
bbd5494a
3ce468ce
bce0b12f
3c95e3c0
bc9875c5
3c8efbb3
3cd08330
bc12b27c
3cf36604
bcb7b481
3c0e2113
3b3a9258
bc541d15
bc189d37
bc9e7472
3c163d9c
3c948b48
bc677286
3cfc3263
bca3f53a
bb465d5f
3cdeaa52
3c37199f
3d0e19fa
bcb9d9f2
bca382a5
3bc544dc
3c6c8fb8
3baf6489
3ce09a43
3cebdeee
bceadecc
3c26bba8
3bd3e4c8
3cb6fdd8
bcce2242
bcb4901c
bbe7df65
bcac5163
3c9a7057
3cee34a8
3b0a89f4
3c818938
bc4c0407
bb4544c4
3cd344ed
3afe25c0
bc102858
3b5fb778
3b91e60f
3bdc66d0
bc14b96a
bcd10062
3a2bef9e
bd0418c3
bcf7480a
3c1f1f25
3b3db14a
3cd6ec6a
bca3d820
3b4730a5
bd0bc560
3d10db87
bc032182
bcbfe3be
bac2acf3
bce1fce2
bbb22241
bd09b345
ba4ed21b
bc7cc032
3cf8af56
bb8c8c9b
3c8c722c
bb90cb81
bd0046be
3c68b259
bad2857f
3cc66ee2
bcd6a088
3cec2570
bccbbfb2
bcf880c7
bcd30f70
bca5a337
bc4e736a
3d0b4e09
bbd73bbd
bcda9269
3d011633
3c22dca8
bc8522a8
bb80d2dd
3c8e5e46
3ced9051
bcfe28d8
3c97108e
3bdbdfc4
39e11183
3c7d7dae
3cd69a71
bcad27bf
bb51aa57
3aec4eef
bb9d8f68
3bb23c26
3d000a81
3d077b44
bcd00cde
3d0e9ab3
bc99b27f
3d0b567f
3c5c1b6c
3cd4354a
3b596317
bc3aa53b
bcd5f89f
3beeffa5
3d070cba
bcfec29a
3c4fc894
3cf7857b
3c87b24b
bcb0398e
bbc572a3
bcb4c862
bc9d320c
3b09a280
3ca9b822
bce0f8f4
38876175
bc1afe9d
3cad5bee
3c286bde
3cedb6fb
bd05cac0
3b02a1a0
3b93c368
bcdb95bf
bbc41c2f
3bca40e8
bb144087
bb316c3e
3be9198b
3ce0ed71
bcd4fd6e
3be62c3a
3cbc03dd
bc2f9e24
bcbf6f53
bcced876
bd119f19
bbccf1a2
bcfdc6ef
3d0ff8ef
3c9608ca
bc346c70
3c39868f
bcf152da
bcf5e2a6
bc675bd3
bd0284e7
3cc376ee
bc889bb2
3cbb5cee
bccf59bd
bd09c53f
3cd8379e
3ab0f8d5
3cefe20a
3c7ae3bb
bcf43bbf
bcebb0b1
bbb05734
bb9f1ba0
bcdacf52
bc14d1ba
3c27edcd
3ce38372
bc57acaa
bca554cc
ba5dfbc9
3c7462ce
bcd9e4cc
3cf6e645
3d119c15
bcd00e11
3d0cd15a
bc87a328
3cc3a8ec
3b4be004
bc6abcda
3b16834e
3c95e1d5
bc86bfba
bc7f63f3
bd08d930
bc4546fc
3cf7bc9a
bcfb2784
bd0b59f3
bc029447
ba77dd9a
3ae10db6
bc00b224
3c39c2d5
3c2d8051
bcf0a832
3b0fc99c
bcbfdee0
ba4c5a9a
bd115388
3c8e5fb8
bcb3926a
bc80e28c
bae5031e
3cf1143c
bc862e8c
bccf4961
3cc59e5d
bb6fe87b
bc6f93a0
bca00062
bc9ab5e9
bafdc4f4
3c8733a4
bacb5c96
3cbdb92d
bcee50f0
bc8fa447
3cda0550
3c964f2e
bc4ade5e
bce58b31
3d0c6ec3
bc908a2c
3ce7350c
3aa06245
bb9fd217
3cb97342
3cfe9f62
3d0573da
3ce24803
bcf8e77b
3c2d72af
bc83f411
3cfd6998
bc64317b
3c05a855
bbf54247
3ce63c9a
bc7d5f81
bc8f2dd1
bc97f59b
bb91b1c4
3cdcb484
3cb312a1
bc11eece
bcbfacd6
3d04bbaa
bc9cc820
3cd520bb
ba728380
3cf70ca7
3cf84548
bc1fc22a
3d06f100
bcbec90b
bc8dffd7
bb9e0527
3ba93a2a
3c826e74
bcbfd600
bc823da4
bcf7b785
bcf2abf2
3c859bbf
bc955aa4
3cffdd0e
bce4cb3d
3c39b2f9
bc116278
3c944f9f
bcf0299b
bcece992
babbf861
bce1f051
bb84a1f4
bcf8e8d7
bc3b342a
3cbfbf5a
3c46b843
3ca731db
bc4d97f8
3c908f98
bcd105b4
3c73b1b4
3b57a65e
3caf02bb
bcb0b9b5
3cb23ce5
bcda77d2
bbc72f74
bcf4eadd
3b940532
bd067b51
3c2cdb3a
3cc7936d
3cde48c3
3c8e819a
bc7cc21c
3d0d0d1b
bd0dfda2
bc97a1ab
3a672b0b
3c4edb3e
bc83a7cf
3c29aec9
3ce293da
bcf4de3d
3c86109b
bc7ec8f5
3ce6445d
bc8761fd
3cc61019
bc60c088
bab10fcb
bc49d48f
3cf61b07
3cedfff4
3cfeb2e1
3ca7882b
bc8bc12b
bccdf945
3d075666
bcc5f653
bb17606d
bcfd4614
3bcd4c10
bc1a11bb
bc68c65b
3cf87980
3bb17f6a
3c415037
bd0c01cb
3c7fa576
bcd42669
3adac384
bd04d5ac
bcd664f6
bbdd50a9
bcb61366
3cc424a1
bcc87c32
bc9a1ede
3c69d9f5
bce1304f
bc38eef5
bc3ecb0d
bcbe53cf
3c24bc55
3ba5918e
bc5a479c
bc9aaa1f
bc8bc2d9
bd118b4e
bc88281e
3cef096f
3c812ddc
3ca95b31
bc55e256
bce48f85
bcd00649
bbca282b
3ce6442e
3cffdf1c
3c8fbdc2
bcd30735
3b60c835
3c8239a5
3c77147f
3ccd21ca
3b8f57db
bc51896f
bccfb770
bb81ade2
bc4bf723
bc9c3021
bc93ebec
bcf721c7
3d0fab20
bcc5ceab
bd07cee3
bd012521
3bb7e54b
3cc62b0d
bcbafbe1
3cddc6a4
3af3eb0a
bc279359
bb3fbb37
3cb45737
bcaf8925
bc4f3636
bca467d5
bc92fe9b
3c7b3627
3c9c5195
398ee55e
3ceba8bd
bd0ae42a
3bec0750
bcd4b139
bcbe383f
bb89fd51
3cf30fd5
3cc59586
3cf0a30a
bc8cc034
bbfa13b8
3ca5a4ca
bc44fc10
bcc2dbb2
bcf56828
bcc3d391
3c13cb12
bc555a47
3cea3ef4
3ccefcb1
bba74992
bcf05566
bb8d4de8
3d01c86e
3d0f629e
bc97adc4
bb451616
3ce6e315
bcd92a91
bcbbaefe
bc887768
bc4f097d
3cbe56ac
3ce013d4
3c382c9b
3cf82f7f
3cb5dada
bb72f9ca
bca4b8d1
3cd92a85
3ab4169c
bb9a77e0
3ca54c60
3cb0c182
3c869803
3c56b85b
bcb5b55d
bc729bb5
bd0668c6
bbb12ba4
bcc131b2
3c7778a0
bbb995b1
bc1b3466
3d06e54f
bc80feab
3b801515
bb1086d9
bcb4bcec
3b565b47
bb21f788
3ca66ff0
bc9303f7
3c71a131
bbeb085b
3cdb45ea
bbc44b39
3cd8396f
3c994ae3
bc6a7ac9
3c02add1
3c16f51b
3cc718fe
3b90bceb
bbf335cd
bc82e374
3b39c506
bd02620e
3d006dc5
3c429080
bd06c7eb
bc16ff8a
3cd03344
bb3e6dbb
3ccc5e49
3be3fe8c
bce4626a
3cc1a1a5
3bddbb8e
bc8f6359
bd06d666
3bc51587
3cdd3bb1
39a57a1f
3ce87f97
bbed9942
bc2617c2
3c72aa6f
3d01b28b
3cb11aad
bc259773
ba9ae075
3c10c171
bc8c6ed6
bc0d028e
bc2d9927
bcd26c01
3c7d42d8
3d06ebbc
bccc7409
3c279f0f
3ca6b682
bce11b89
bbc4d78e
bc99041c
bcced1b6
bce7557a
bcd38c4d
3c3d1c30
3c9e3afd
bc2bd559
bcd16e5f
bcbd68fd
bc11b2dd
3d0be20c
3cefe08a
3c738d4e
3c4cf9c1
bd01b67e
3c87551e
3d002472
3c9743a8
bae56964
3b05f1cc
3cf7e6eb
bcbffc47
3b1ece78
3ba7d590
3be8322f
3bc91b5b
bba55306
bcf6d7cc
bc15bb8f
bc824b30
bbb40afc
bcb8b4aa
bccdfb8d
bcc4d55b
3caeca92
3c38a240
bd10356b
bce4d474
bd097ec3
bd04d6dc
bb67b4ee
bcb2b081
3a4f290d
bd041b96
bcb9ec49
bc0302f5
3cfd47a0
3c5f1b40
bc25402e
3d0f75ae
3cd3afb9
ba52cc02
bcfbe0aa
3d084dab
bc9aa74d
3cc4f462
bd0dc0a4
3d0545ba
bcfe9cc6
3cefce65
3cedd6c2
bc232a25
3992b6e5
3aa1b7a3
3cc850f9
bc06babf
bcb92593
bcb86614
bc208df7
3bf41322
3b82a96d
3c98f145
3b91852d
3d06190b
3b8074ad
3c47a89e
3bd87ab6
ba4cd0ce
bce5af22
bc080fed
bd02fe67
bd08d241
bb44d7c8
bce5d277
bbc624ad
3bb8f75a
bc8086bd
3c64fa24
3cffd3c7
3c3e9219
3c43e947
bcdd24a0
bc3ec3eb
bb169e79
bd036f72
bc075f2c
bab5ff8f
3ca5719d
3b49a364
bcf263fc
3d06a428
3d0d055a
bc68f33a
3c4e2263
3cfc0cfc
bc170ba3
bbed9870
bcff0ff8
3c656b8a
bc3413b6
3ba1f98f
3cf549e0
ba899960
3cc8cdd4
bccbb8de
3c53f056
3b56b599
bc02fb60
bc01dff8
bc816f4a
3d02ed1e
3ccf92ec
3cb9b87c
bc1dceae
bc0d6130
bce9d9e9
bc66dd01
3cb8de6c
bd0f10b5
3b06348a
bc5a2571
bcc72066
3bba63a9
3d01cd52
3b867073
bbeb301e
3d0665c5
bcc0773a
bcf777cb
3ca3b530
3ce34349
bd060cf0
3c37fdff
3cea8454
3cecde8e
bc1c176d
3c14ea89
bcdb35a7
3c660139
bd0582de
3ca2eb79
bc50b488
bcd612b2
bcf276fc
bc0c036b
3af43254
3cbd00a9
3ba74838
bcf91b1c
3b8f452d
3cc90230
bbe791b7
bc756cea
bcaf50cb
bd009a7b
bad9483d
3c826bdc
3b9aa4a5
bb9db509
bb4fc5e7
bcc322e9
3cc9a036
3d136fce
3cf5842e
bb84e466
bb1e9644
ba0b43f3
3ccbe058
3c92acc7
bcc89b35
bcfe80d9
bb6db824
3d03a438
3c7f75e2
3cf93de0
3b4332cb
bc9476e8
3ac84ff7
3cdcb37e
3cae3d96
3c13f178
3c99a6b5
bc17790d
3bd7d1ed
bca1ae53
3d087947
3bf31b86
3ca3ab4a
3c28a96e
3c7553ec
3c08a69b
3c33eaa9
bba1bc28
b9ae02bc
3cc51989
bcb627bc
ba5e1ef7
3c93ec26
3b6886fd
3cf40e6b
3cd22261
3cb65edf
bc466da6
3c95bfd4
bcee1970
3d0a7808
3cec4997
bc52ea7c
3c91c0be
3c45f5ea
bd136280
3c882d3c
bd02ff30
bbf9c80e
bcd29cde
bbe1bcef
3c6053fa
bcdb57a5
bd00565b
bc5b8397
3ce03602
3c2ae8eb
bba5d92e
3cb2365e
3c9acdef
bcf53e2e
3c73adfb
3c98fadd
bc546d8e
bcee9f13
3cfd4dd5
bd03092f
bccc81d7
bcc56fa1
3ca93b5a
bcc7486c
bcf46a9c
3c3060d4
ba885003
bd09d950
bc98f0b6
3c80a12c
bc918b17
3ca1b579
bc088ac8
bc9e7a87
bb6b14e7
bc81f16d
3cc4cbdc
bc8c2d79
bca085d2
3b65dfc6
bc8a0fcb
3b9767f9
3d11c743
3cedb97e
bcf02640
3d05f726
bcaf38f1
3d015934
3bea8a33
bbec1d59
bcc8a6d1
bcb95190
bca6a60e
3bc41880
3d0d47e4
3c0067e5
bc2f2ecd
3cfdb355
bc57686d
3d05875d
bc8e05ed
ba81c966
3a469e4c
bc7c5f27
3cf50ee2
3c613c12
3c047efa
bcdbf890
3b027622
bc957c9a
3bef208d
bc8eaf2f
bc28b5c1
bc6824de
bc3da14d
bcfc443a
bbe443a8
3c5b7fe3
bcf0fda0
bcac8a43
3ccbe07c
bcb00c18
bc913c40
bcc3b8a1
bcd983e2
3c205294
3ae535e2
bd0ef780
bc8457dc
3d09d306
3b8e0494
3c9d1d25
3c65a4d6
bc751dc9
3ab2bd28
3ca1dcd7
bca20813
bc537669
bd0d96ef
bacf5d9d
3c3abc11
3cdac33c
bcc871b0
bd02bb07
3cbbb27c
3cc8a977
bb2cb420
bc5117c1
3c1da4e5
3c8cfa0f
3d028ccf
3ce6e30f
3b997042
bcd4eef3
bcd40b19
3c0a302c
3cf00acc
3b34dd70
bd118373
bcb55bdc
3cc8ee11
3b67165b
bcc80064
bcb79a20
bc37d856
3cd86367
bcda3ff8
bcaf24d7
3cf3e255
3c7e53ba
bced6871
3bb0700d
3bfa7d19
bcccfeaa
3cec5370
3c896db4
3cfa0d62
3d0cafbb
bc810c0c
3c9c3bef
bd0bc0b9
bc50478b
bcfea621
3c624c12
bc468e34
3cab80ee
bd01dc9c
3d0057e3
3cf25608
3a36a41c
b88871e2
3c0def0a
bd12f837
bc43a6d9
3be985a2
bc2be4d4
39451b55
bba6967c
3bf6fcec
3cc8a1cd
3d00f696
3c318c52
3cba2ec5
3be4caa4
3ced3be5
3a18260b
bcaebf99
bb740a37
3c884b6d
39220d2e
3cf18e4b
3ccabdbf
3cbcb077
baa347b7
bcc8bcaf
bd00a28b
3c98ffc5
3c93b88c
3cfadc97
3c5ddb7e
3d00c57c
bc80d587
3bb46938
3be7152d
3bd65de3
3b379c4e
ba54a47d
3c07a1c1
baa2c4e7
bd0eee1f
3c9970da
3cafc57f
3b83428b
bcea30e0
bc62ac5b
bc176725
bd0c819b
3b8a1b5f
3640d04f
3ce3720a
bcfe0c5e
3cf5eee8
3c3bea4a
3bdb32b0
bc58e47e
3a17c831
bcbed3db
bcc44fe5
bd067188
bca61942
3b6f0014
3d0ed63e
bcb37983
bc44aca1
bc86ac84
3acf47d5
bc144314
bb17add7
bc3ca91b
bcea3b71
3ca4237a
bcef1a70
3c68d511
3b435570
bcb87b30
bc5ef2cb
3cba1308
3c2b980d
bc777e4e
3ccbfc25
bc1d974c
bc359ef8
bcb20510
3c79ecb4
3c1170a2
bbf69b1e
bce80bf7
bbce9ab4
3ba0df0f
bc1abc72
3d11308a
3c932c86
bcd8753b
3d0432bd
bd04885d
bc91b5bc
bc2d5556
3cffd2ba
b886e0c3
3d04217d
b965716a
bb99cbb8
3c293f83
bccba7da
bcb6bc6e
bb77dd1c
bc643ec9
3c9bbca5
3cb15826
bbf8ca24
ba2d890b
3cf4d33c
bd0692c8
bcbd3aaa
bb78e4db
bcac7865
bbca5179
bcf37e81
3b919c0b
3ceb796a
3c55629d
3c162da5
bd0818bd
3cf89fa9
3cf33919
3c3e0c2d
bcc500a3
3cdd6b11
bc0372c6
3c815ce2
bbd2ea85
3cff3711
baa98465
bca73f80
3d0748ce
bb4a89f5
bb713d7d
3c9085e6
3a36c0c9
3ce921f1
bc91f363
bcdd1701
3c65dfb2
bcd23b68
bcb3b8d6
3cf60ca0
bce68d7a
3b1e060c
3cb3c114
bcddbbe8
3cbb417f
bc07db6f
3acc4299
bba25702
bcc0e175
3b08fc33
bcff1e4f
3c0a39d9
3c46363d
3d0d20f7
bc0f5cfc
3bf65530
bcbe15f6
3adca617
3d028583
bb11180e
3c2d5608
3ca4eb4d
3c3c7761
bcf6bdb3
3cf00680
badfa50f
bd0088c9
bc036a52
bcd86f67
bd125a5f
bca2d5af
bcc3e3c7
3c442708
3d0977b1
bc8c902a
bcf01761
3cc77113
bb88008c
bbcb20c8
bcbbdd6d
bc954cfd
bd063be3
bcd3f904
bc807112
bd06f663
3ca8d661
bc6aa449
3b91cc18
3b97a735
3caa447c
ba9d2ef1
bc59670c
bbc042bb
bb590821
3cac0d9f
3d01b41f
bc620a88
3c470bfc
bd063d92
bce4c50d
3ba1f40b
bd0e5fa8
bd015346
bbb3b1d3
3cf8b88f
bcdb00f4
bcb2fe57
3c9fa855
3ceaa4bb
bd01cde7
bd022758
3d042842
3b8f0062
bb9da877
3c8d9b73
3cbd50fc
bc7d993a
bb111ae3
bc984eaf
3b0b08a7
3c4fc0fd
3cd98771
bb9d4107
bcadb03e
bcc892a8
bc623086
3c8fa671
bb756a3a
bc8eb626
bd0288a9
bbb4c6c2
bca49152
bb35534b
bcb9236f
3c492039
3ca74a8b
bc63b98d
bc59dbb3
bc00e48d
3c544a44
3cb7d923
3cd78a7a
bce81005
bd0783e0
3cd97941
bcc0a310
3ccefe21
bce83933
3ca92d50
3c11fdbf
bc4a02ad
3cb7eec0
bc2c87ed
3cb891ff
3ca39dcc
bb14ff55
bcb60913
bca912f5
3c267ab9
3d099ce0
3c1855c2
3b70f1b9
3ca1af26
bcd16e67
bcd7a047
bb8e0257
bc877085
bb092089
bc38aacb
bcb573db
bcc4e6b1
bca5f176
3ce22c35
bc318ed7
3cfc8ef8
3c8f3e6d
3cdcdf54
bcedfce1
3cf7f5b2
bcb93369
bc1163c3
bcd09139
3cd56503
bcee8549
3cddef1f
bbd6a5cd
bc9a7593
bd09d63c
bb9842ab
bcccf3a4
3cc6c483
bce67a36
bc914178
3b53655a
bcbb3449
bbd16964
3c11f793
bb32ad6c
3d1033a0
3bdb6ad3
3cab19f1
3c6200bc
3c957cb4
3b16083a
bbe5a8d7
bbde01ed
bcb4fd11
3ca0c49c
3b5ff24a
3d10ab6f
3cb0af57
3d04c927
3ce0b666
3c16bcd5
bcb7c7a2
bc3e3d86
bcb54643
3bb0f124
3d0b9e69
3cd176aa
bb9ef2ce
bc11b067
3cd9b52c
3c6a0510
3c357e5c
3cb56596
bc27c3f1
3cd141d9
3c2b7126
bc94a844
3cf8e4aa
bccefe60
bb1e50b4
3c9e69b5
bcd1b3ec
bbade33d
3c38c1eb
bcc9a348
3c802a94
3d0d253a
bbbdb24f
bcc2f3b5
3cb2948f
3cc24649
bd0d0853
3ca00af3
3cc8a752
bcfa3529
3c381fca
bcf20288
bb1b5920
ba2e8f79
bd0f1a8e
3b8b9a14
bc4d1a72
bca50c27
3d0b3218
bcf242f0
3bb50af0
3ccba1e8
bcbd729a
3c81c5eb
3c856834
bcca692a
bd0bb9a9
3c6cb032
3d0b69d5
bcd09cd1
3b821206
bcb146f5
3ca5970a
bcccedce
3ce88b35
3b3c6a00
bca3435a
3c31c613
3d08e8a2
bd13eeb6
bd05ff33
bce0be7f
bbfed74e
bbdfed31
bbb9b032
bcc17ce9
bd0db13d
3cf7bbf8
bc9bd65e
bc805834
3b71d34f
bd127aef
3c6923ec
bbf94ce6
3c236707
bc6af8c6
bca87bfc
bc9965e7
bc472f7b
bb30c17c
3bf66283
3c839c42
bc05c4a9
bbb3da2b
3cab743a
bc78353e
3ca43afa
bc990950
bb91824c
3cfa0f54
3c098410
bcef015f
3aec66c5
bbe93350
3980e2b8
3ccdffc0
3bd76fd3
bcd8b66b
3c1039ff
3ce39f57
bcb6f299
3d13c64f
3bf4a26a
bca9d528
bcaa1a96
bca9651f
3a9cdc2f
3b2c484e
bcd7d7e0
bb86fa28
3ccb64d8
bc2f1425
3cba9172
3c56e0d6
bc745ae5
bceef843
3cd86880
3c9ed2ef
3cc9459d
bcaf93a1
3cc29dd0
bcde4291
bc117747
3c6f4c40
bca9e09b
3bd4fa42
39300e87
bcae512d
3c7684b3
bcd845c8
bcacb420
bbe6272e
bc909516
bc181193
bcdae80e
bd03b8a2
3bfec4d8
b9f2e338
bb3c45c4
bd07e849
bd0c81d5
3c7b31de
bcb47e38
bc72ab2c
bca96f2a
bc536cf3
bc922bd6
bc20ae44
bcba9d81
3c4c7bf2
bc130101
3d0f905e
bc82307d
3b1f4881
3d03703b
3bee5bfa
bc351866
3acdbe8e
3c815ceb
3cd000b2
bccd37e8
3cac54db
3cac16ad
bc463505
3d02ee67
3c86c0c4
bc8e59f1
bc86b028
3bcd5cfa
3aa061be
3cfc9562
3afb79f0
bd0099ec
3a842059
bcab2f47
bcddc8a8
3cbeb2b3
bc2882ca
3cb05bb6
bc96a06a
bd0b669d
bc9c2c66
bce89213
bcb15a83
3cc19d2d
3cca6fb1
bc6ff812
3d035c96
3cb7cd2c
bc7354b5
bc2c752d
3cf61434
3ca6d0bd
bc8651a2
3cd931d5
3c951902
3b76f14a
bc3572f9
3ccfea23
bc93ce79
3c9779fe
bc04bd89
3cc71734
bc99a64c
bc11a243
3d158f81
bc715ad0
bc9ac8bf
3cf1b110
bcfc09a6
bc6f891e
3c20393b
3c91832b
bc555f7f
bcb442ef
bbd04028
3d0e1223
3ce1327e
3bfca234
3b859c6f
3d045480
3cfc3537
3cfab1f7
bcd08c42
3c375499
bcee9046
bbd04a69
3ccf659e
bcde6649
3c20cf4f
3d129c07
3bb75bb1
3c90940b
3c2e733b
bb49b8e6
3cadb930
3a95a6ac
bc9b0898
bb04dd71
bc069404
3cc5f7fb
bc8cca0e
3982ee28
3c871293
bc978f7d
bd0c631d
bc5ddfe5
bcdd7f8e
bb8a52df
bb55c015
3cb545a8
3cc096a5
3c808ea4
3a6eb48d
3cd11f2b
bc825619
bd029994
bc87a663
bd0bcf31
bcd37153
3cf2549c
bd065db2
3d067371
3b36a4e0
bcd04c2a
3c0b8b01
bc594122
ba014ad9
3bbdbafa
3bb41d4b
bd09f51e
3cc92a5a
bc96b61b
3c361f7f
bb0e3572
3ca9d834
3cd4f251
3cf18272
bd125f5b
bcb95498
3cdea2da
3c626632
3cd9bc82
3cdbefe8
bafea141
3bd5a857
3b8a07ad
3b2307ae
bc296d5a
3b1e1bb3
bcbf7a1f
3b788a91
bcdd0240
bcd605d9
3cc44493
bc05aeaf
bcbb3487
bcbae1a8
bae9b92e
3c8d06a4
3cb9307e
3c978734
3ccac6d2
bbf566f1
3c9d3fd8
3c87398f
3ca568fd
bcf89f81
3cbb3580
bc1825da
3be03166
bc93f01e
3c81c991
bd0b24fd
3c489ff0
3cfc0f35
3d093983
3c61414b
3c862447
bbeb5a66
3c98b5b2
3cd4e8f5
bb8cc474
39253502
3cf5caff
3be5e1a2
bca56a4e
bcb5f826
bc0f0498
bd0ce4f2
3c94d74c
3c85d489
3d0ecc25
3c0932eb
3c567f07
bd12528b
3d129130
bd121281
3c733575
3c4bd924
bcf212d8
bc727cc3
bbc2384f
bcb084a1
bc566cf9
baebe7c2
3c5196a5
bcdfb28e
bcf24acb
bc944654
bd0fa30a
bc3838be
bcbead06
3c56ee86
3c3896d4
bb42d19d
3d111c12
bd050126
bcea7b59
bc0e59d5
3af71498
3d085151
3beee733
3bf31abf
bbcf82ef
bc91a4a3
bb7bfab2
baa5b6d2
bceb6c7b
bc5a4f0d
3cb99fb6
3c0c98a7
3cd7cada
3c6e160f
3c22be38
bc846ac8
3c345df0
3c27d438
3d0715c5
bcb0f88e
bcf932e0
3cb78fa7
3c7f1a05
3c5fc935
bc5fa6fd
3c648da4
3a179e8e
bb80120a
3c62f930
bbe5b690
bcfd04aa
3c225aee
bc58b920
3c0e030d
bc0a0e73
3c819864
3c01fffa
3b5c91ab
bce7eb15
3cc2d318
3cff2b66
bbcddda3
3c924ad2
3ce3b0da
bd0c2407
bccd1f79
bccde6f5
bc1deea5
bcbf0042
3c9cbc8e
bbca1ffa
bb003a23
3d104709
3bf3fb5f
398e27c7
bbc4d87c
3bf59771
bd009970
bd0db24d
bc1fea81
3d0f7e6e
bd0d0b50
bb793d77
3d02dfd6
bbfed92a
3cc42eae
3a90296c
bb6871fc
3ce4c18d
bcc5c85c
bcdce6c6
bcb3adfd
bd0b211c
3cc57522
bcd88203
3c663ca6
3c3e6b46
3c991e7e
bc11b001
bcd823ce
3d0bb285
bb9802f6
3bc13b59
bc87d528
3cef1c2f
bd0bf74f
3ce42c04
3cdeaa11
3cb26a06
3c3eabd0
bc7ee80b
3c214fce
bc98800a
bbb486f3
3cfbab99
bc603518
bc998f25
3ba0c327
3d0a8b7d
3d03f3dc
3c8c4788
3d03b771
bca83dbe
bcc33f5a
bc9d4cf0
39180d00
bcfb46aa
bc98d920
bbbe6754
3cd26ad8
bc5215c0
3c6c41dc
3c5badc4
bcfca5e1
3cd47b10
3c4c4918
3ce944e6
bcbeac7a
bc933525
3c41df78
3d0b0bdd
bd0c532a
3cc13558
3bfc9930
bc57fbb2
3c996558
bb087e10
bcc2f0d5
bd097610
bcc01d23
bca2887a
3ca2450c
3aa6f240
bc9c576e
3cafcc3e
bcaf6c38
3d08439f
3a6e3580
3c4114b0
3c6fd504
bd09749b
bc9e4487
bc4a8eb2
bc372ce6
bbb68908
3ce1b54e
bcf0d3a3
bcea5cea
3d092571
bc84ac83
bc4ee460
bccba365
3d0fdec1
3ba18188
3c1d3c78
ba123f40
3cba964e
3ab7f060
bce334a8
3caaf6d8
3d0210d9
3b8cc030
bbbd4824
3c168950
3cae3e5a
bbb21b00
3bed0328
3cfc884a
bc6c72dc
bd043963
3b548f20
ba5a0340
3d090e1f
bcd25370
bc2df1ae
3cb4b922
3d0ee6ff
bb6fa850
bc847467
bce3b740
3cab5c7a
3af7b740
bc33103c
bcce39b8
3b853d58
3ccc6290
bceb8a61
3ca09e28
bceb4e25
bc23a8e6
3c677294
ba799880
bcd5d5e3
bc88cb40
3c7bedb0
bc9ad85a
bc216d6e
3be19d70
3d0610b5
bc08fbc4
3ce02d12
bc9b633a
3cbd5e30
bcfe095e
bcc83fb8
bc686ea0
39c33700
bd043c9c
3c8a20e4
bc11a14e
3cc1c7bc
bc48a958
3bab1140
bc0dc460
bd113978
3a60e7c0
3ca6e788
bcdaa64e
bce50e2c
3c29a538
3cc9e00e
3c862aca
3b62c750
3cd96738
bc0ba8dc
bd02bbf4
bcc7e5ea
bca5d8e3
3c3b9c88
bb8cf528
3c827af0
3ca59772
bcd3d620
3bc91fb0
bcf65a85
3d0131fd
bca8b585
bcb46ace
3c76d75c
bb327400
bd05269b
3b8b91c0
3c81dd30
3d0c3bd7
ba8ca960
bd1175fb
3cb4a916
bc7194ca
bcb3291e
3ba5cd18
3ba79500
bcd8a1e0
3c355624
bce4bb8c
3d101ba9
bc3c1b1c
3ce255ee
3c087ff8
3bb44cb0
3af186a0
3c67d5b8
3c796670
bbac0340
bcb763d0
bc6f0592
bcd1aa2e
3cf371d6
bb855ca8
3aa1ea60
3c96ed1c
bc4ee04e
3b2b1100
bd0fed05
3cb7b1f0
bc962cde
bc0b46e4
bb597be0
bc233ffc
bc59444a
3cebcdd2
bd014eda
bcf78fee
3cb2c3c8
bcab84a5
bbf7c0f8
3cc3d210
3c94ae72
b9cae300
bcc07f83
3c0f4b88
bc463d4e
3b0525e0
bb6f85a0
3b1168d0
bd0748d7
bd014ba6
3d0175d1
3d10e641
bcdca5e0
bccb1e7c
bc54498e
bd041129
bc6d109b
3c20baae
3d0ea579
bc536d60
bc3f1063
3ba4cbdf
3cb7087d
bd051e08
bcbc541c
ba9578dd
bd078ba6
bc510620
3c43d7f0
bc97a115
39299643
bce31720
3c036bef
3cb68509
bc3bac10
3bd42e24
bc9191fa
3c8621ae
bc506904
3c9f00fa
3cae141e
bc0361ef
bb01d090
bd01d972
bc0b331f
3ccff4b8
3c8ae958
bb3da639
3c494684
3a6e62f6
bae03f6b
3caf6ded
bd0c6139
bc1875d4
bb8c8b28
3b31416b
bc97feb0
3d0f0e76
bb65a7d5
bc823257
bb807726
3cb8d71f
bc87dce9
bcc32e83
bd120dd7
3c222a42
bcb0af82
bb05e37b
bba8f09c
bcd058bb
3c7e2b5a
bb6f3668
3cb300eb
3d0ff1c4
bc87c04a
3c9becac
bcb90059
bc5dd079
3c3f318e
3c759b11
3c77c946
39d8de06
3d11cb2d
3caf5abf
3ba0c798
bc7ef16c
bbb9e909
bc76533d
3c4a4978
bd0239a6
3c3c56fe
bb204388
3992ea4f
bc725329
3cf1c8d6
bca9523d
3cecf46a
bc245e03
3cfa62eb
3a5661c4
bc8ec7e7
3d0936c7
3c58ba83
bd00a482
bca7a58a
bbf6647d
bceb0235
3a6bc799
3b993312
bd01cdf1
bce74913
baf8180b
3ca9b73a
3c3576b5
3d01a24a
3c8cc0fb
389f7592
3cf2c80a
3cc4062c
bc808225
bc96d7e1
bc5b68fd
bce21cf9
bca60f25
bc9cd5de
bca53068
3c7c59e1
3b9ee122
3cce5609
bbc002d8
bcbdca8e
bccc275b
bd002a48
bcc41190
bcfde8df
bc823535
bcb46935
3cc56647
3c42937b
ba32649e
3c81b0a3
bcfcb167
3d083076
bc96ab9e
bc5e2ef0
bc86d3f0
bc22e11c
3c275e79
3c4b5ae5
bca184db
bb979687
bcc6395d
bc243ceb
3d08e02e
bce9dae8
3b62ad7f
bd0bd80d
bc510f83
3ca492df
bc27b23e
bcf5546c
3ce68960
3cf3c120
3c5efb28
bd02fdba
3bfd112c
3cd53ab3
bc93618e
bb92a271
bc0bb677
3ca8ffa6
3ca83e3f
ba8ad5bc
bc3da19f
3d0bf0fd
bcf4e98c
bc545d2e
bd077b94
3c41fdf7
bc37c5e5
3b2d38b5
3d107b2d
bcaf7c53
3c483d21
bb95103c
3cc4a297
bc40e06d
3cca0ea4
bccef478
bbf59f59
3cecb9f3
3c744340
bccb47a1
bd01b649
3ca47b2c
3cf72477
3c481dbd
bc8eb557
bc90a9b0
3c849a9b
bc6baa0a
bbe4be7f
3ae127dc
3cd50308
3c3fece0
3c0ac226
bd113ded
bc39f4a3
bc80675b
bbc8fd6a
bcab53b4
3c3ce801
bcb52289
3cf4dc8f
bca6f5e6
b9143810
3c813199
3cb0ea9f
3cbe0dcc
bcd8c55f
3d0dc111
3cb7da3c
3d0f9e5a
bb7e96b2
3cba08ed
3c73f3a2
bcf63d10
bc1a8cb5
bcc48a2e
bb85dbe2
3d0a9adf
3b9a8927
bca841eb
3bab5011
3c04f2a7
bcb51088
3c1761eb
bcfeb795
3cf47d29
3bc1ccda
bc8e9747
3c4a2f0b
bc9ea427
3cd6218e
bc349f53
bc9415f2
3cafba1e
3caadeea
bc6c57db
3c575db4
bb9899ae
3c72ee40
bb586503
3c8a9ce4
bcc55500
3c51525b
3b309643
3bc241df
bbb72949
bb12f84a
3b085238
3cb3d183
3cc1ee6d
3b10097a
bce86829
bd11b13e
3d0e8b3e
3c315875
38c0e604
3c96bd45
bca10c99
3b2b7c0f
3c5f6969
3cc62cda
3c72d9a7
3a949a4d
bba29be9
3c658d5f
bc7e5ed8
bd04c82a
bb42f655
3ce347f4
3c111499
bbd0f505
3cd08e16
bd0a93a0
3cee35b9
3d08d62f
3ceccfe8
bc22997a
3c9770cb
3c851f1b
3c0ad2fe
3b979e63
bcf7a65b
3c456e46
3b02c7bd
3c94ef5d
bae49569
bc8d7801
bd0a958d
3b7b335a
bd0c372d
bb026842
3cead064
bcf89d3a
3cd376b1
bc8a70d5
bcde76f5
bcd5ee43
3ced22ae
3c0c252a
bce273a3
3ca20a33
bd11fa4f
bc77eacf
bca15273
bd136025
3c34bb2e
bc149ab4
bc84d25e
bcd07fc5
bc4053aa
bcb8ace0
3b819635
3ca27d4a
bcb95270
bc650e8f
bcd5a366
bcbfb6b2
3cee38f5
3c5b9049
3d08287a
bac8851d
bcdff6a9
3c95513c
bcafff06
bce2eee3
3cef60ad
3ceeacf6
bcd064c3
bd05e9ec
3d00c509
3cb06258
bc9f0e29
3c96fbd7
3b9fc288
3d036684
3cd88e3c
bc85d523
3b80599d
bc55d2b0
3cce74d8
3b8bc2d1
3d093f9f
bbfff451
bc7bf0d9
3be87b20
bc1da2fa
bbb584dc
3c7213b1
bca30ed9
3c1243ba
bc93ad36
3d067ae9
3c463cb8
bcdfdf90
3d002895
3c17ff7b
3cdec5fa
bc30faa5
3cfb0246
3c5383b8
bd10e70e
bcf9bfb7
3c45e298
bc48cf05
bcdaf4e3
3c60cc8a
bcbe6e45
bd160f91
bc914cd3
bc959b04
3c569d41
bb3b1809
bcb677a1
3cd16d26
3c81b5da
bb8d43e9
3d151d87
3d12b4cf
3c667081
bc461c3f
3a24f5ef
3c0e3ce2
bbdc36bf
3c83b843
bca5ef4c
3cf03568
3c166636
bc3a86da
bcb1ce65
bd02b177
3cd4ba58
bbf3dcf3
3cb6d084
bbef2e35
3caab34c
bcf8b76a
bc8970df
bbfc0565
bcaa5b8c
3d0f33da
bc8830e5
3cb54221
3cf9abc4
bcecb377
ba4a0760
bc37f6d2
bcb0b83c
3c21e30c
bcdd3f9b
3c4ebd0e
3c7325c1
3c2e4929
3a8cbffd
39954796
3a276ee7
3be40500
bd0308eb
bc342a1a
3a66dc87
3b854304
bcc8f1a1
bcb8df89
3bab7f2f
3ceb4745
3c83ed70
bb43278b
bcb14435
bcb7fbae
3bcd27fe
bd05a5d5
38147bc2
bb503609
bcd3c30f
bcab608a
bcb9866a
3c85b07c
3ca4bda4
3d043276
3c05ec97
bc9cac82
3c6948fa
3c725db6
3c69aedc
3b8202c8
3c5c100e
3ca68cda
bc52340b
bc40cd60
3c0b00a5
3c7f762e
3c959a68
bbac7dd6
3ad76b4d
bc857953
bca05d08
ba834a9a
bcc79368
bcbceb0d
3cf74f12
bbeb57d4
bcb690c6
bd0e0c96
ba1bc42a
bc4f8c71
3cb88a35
bc03703e
bcfd5463
baf14470
3bce7aa1
bb6af0e8
3cc0168e
bced271b
bcef7f8d
bc4e2f7d
3b0ed26d
bd04fe02
3d03333c
3c76d327
3c8d95e4
bc681606
bb3e8b53
3cc5b415
3cd5aa2a
3cc0f97e
bcdcdfe4
bc3c4962
3b486276
3ca10dc5
bd10e29a
bc2d2611
bc6790a2
3ce45e93
bac22132
3b9b05fc
3c4427d1
3c0c68e1
bd04038e
3cab6318
bd04a3fa
3b0d749d
3c02fb64
3cfa9479
bcb442a0
bccabf4d
bcdbf06e
3d033362
b99694ce
3cd60158
bbbc1a1e
bc963b50
3b903593
bcf2fd5c
bc169f94
bd08c111
3d008668
3d00e7e5
bcdfd4a8
bcf80de8
bc65d344
bd10e400
bd03347c
bcb23366
3ce40468
bcfb7ae6
bc47e740
ba0d16cc
bbf7b09e
bce808ec
3c3aa2d2
3cd4465c
3cd60908
3c554c30
bc97b34c
3c3fc336
bc4f9156
3cf3c0ee
bc51a483
3ca7e1ab
bbb9ef47
3cdd228e
3c85c402
3c4b59a6
bc54d937
bcb5574d
bbd5d0c7
3ca092ed
bcdf1f6c
3bab1192
bcdf742e
3ca4c9ca
3c616de0
bd0e5b71
bcb150a0
3c79d95d
3cf2a476
bcfe6644
3bffc443
3c8f4d00
3c0b4716
3b8446b9
bb992e94
3c87dffb
bc5da452
3ccc1c66
3c8c7ee3
3c58346d
3d032bc3
bb71e0bc
3ca83151
3bdf3915
bc031faf
bca448d9
bceac58f
bd0e1339
bcd5e5cf
bc85f0ac
3cc42be5
3cbd138f
3c7ee7c6
bc4ce3eb
bcd1c23b
3aecccb7
bccd7624
3b83ee59
bba7fe99
3ca6f680
bd0cafa4
3bb336b7
bb230ca0
3d10cdd3
bb3c88fb
3cb4cfa4
3c866992
3c6ba6f2
3c8f8beb
3ab696e2
b99ec88b
bb494d1d
bcd9131e
bc95078a
bd0f659b
bd01c371
bcf384ee
3cd53802
3c619522
3bf96c0c
bc5c1980
bc4dddbb
bba8725d
bd0548ac
3c22b022
3cd4e8a0
bd01fb90
bd089849
bcaec7e3
3cc19638
bc67edfa
bd0c11ca
3c6dbb24
3bd508e3
baf7afa5
bd021160
bd0d5395
3ab90b94
3cd54e12
bca44087
3cfd7d78
3b721114
bd06cd5f
bcd39149
babe15c2
bbff3479
3cc9d619
bcc79ea6
3bb175b1
3cce5500
3ccff376
bc001d8d
3bcce009
bbf08c53
bcea5e2e
3a716ae3
3ceaf9a1
3cae11cb
3c5b6c17
bce3b5d9
bb5f2582
3cba8ca3
3afec204
b9ce38e3
3d0cfd05
3b7fdf72
bc8263dc
3cd76884
3d12b72a
bc0f5aa8
3cdbcbd0
3c2fc995
bc9d9662
bd02497c
3cee806c
bc90386b
bcc7db0c
bc0de8ae
bb26894c
bd0de350
bc489659
3cac6f64
bc0a5817
bca23178
ba9cad4b
bac392cf
bb2ed95c
bd0b28c0
3a7557dd
bccd4b1e
3cd390cb
3d0c477a
bc7f256c
3d0db16e
3cf923da
3c37edc0
bcd6dbad
bc86bc39
ba7361a8
bcb90feb
3cc095d8
bca01fda
3cf70e92
3c00c882
3c1d2770
bcbaf8b7
bcd1d995
3b930c9e
bcc97927
bc840e59
3d03eda0
3d0fa4ff
3b01223a
3a8e1c5e
b9db5434
bb906727
bc4865a1
bc7b37b9
bcc75ab0
bb9b8ff0
bc39bc2f
bc097269
bb38b5b7
bcff710c
bc915720
3c0ef948
3cad4974
bcf93081
3cdb3556
3cf32378
bb352586
3d07edd2
3d0ef0c2
3cebd101
bcec070d
3d041a10
bc9a5e70
bc88502c
3cc9d41c
3c265e9d
3d01b544
3ccfa553
bcf4582c
bd0b35a3
3cf05ace
3cee52c2
3cb3afd4
bb0c30a4
bcaf6977
3bf7885a
3d114b7f
3c73a13b
3cec633b
bca2d20f
bcfd4cef
3c484d88
bce79156
3bf054e4
3b609386
bce308c3
3afa80dc
3cb1b0b5
bcf6a73e
3cc7949c
3c3cbd25
3ce2f95b
bcbc68ee
bcd318b4
bc81ca6f
3c397503
3d03895d
bb8e7375
3c0e950d
bb3d4e61
3d03d2ff
bcca2027
3bce0269
bc053ef3
3cd885c7
bc967e18
3d069af4
3c10f6a8
3c9d5d1e
bb1ffb51
bd055b86
3ce7f473
3cbb91c1
bcbaa6fb
3c23b639
3d0faf1f
bd02e5f6
3cf9a42c
bd000319
3c90487e
bb8a264c
bcd806d8
3cd91d07
3c51bc6a
3d080e49
bc1fe4c3
3cf3f85c
bb0f2b9d
bb768bff
bcead869
3c596787
bc85d104
bcd518ad
bcb1055b
bb2cc483
bc0424be
bc8f9904
3ce2278f
bcca8db2
3cab50a8
3cffefc2
bc5f0deb
3ccc53f2
bc8ef38a
bc36a541
3cfc9e99
bbce21ca
bbedafd4
3d07ef74
bcee5ece
3cfb2041
bd14870a
3c70f69f
bc24b342
bc922886
3cd01212
3c92c83d
3c9d91ca
bc38fee6
bd0959ab
bcd28c03
bd0909c7
3bb66734
bd0409ac
bc9fd092
3c132dfc
bc80421d
bcb07622
3c0e40f5
3c9742a0
3c9186fb
bc60a231
bc4dd494
bcbf0fdc
bcc46192
3c027676
bc902d9c
bc6e8ade
bb5dbaf3
bcadce35
bad80270
3d018566
bcc82230
bc244d2c
bcf7a22e
3cc0d686
3bb806ee
bce619ee
bc226902
3c2d461d
3d005d97
3cd751c6
3cf2402c
bc080d9f
3cd07a80
3a953ed2
bbee3e03
3cfe15f5
3cda0db7
3ccee944
3c1d5dd9
3c9da4e3
3bbfde9b
3c5f833d
bcda913e
3bd1bc3b
3bf693fd
bcf68a5e
3b66fc27
3cb70c78
3cc4c5dc
3d0c53f3
3d12e2ff
bd0f7b31
3cfa3d30
bd01de46
bcc23aa1
bc82aeb7
3d04bf18
3cf4d800
3cda598d
3c7834f2
3cfc2d95
3cabd981
bc7cc019
3d02ec7b
3cfd2cbe
3cccdd59
3c7e2e51
3abe1ce1
bafd83bd
3c55ae51
3cd19666
bcadb1a5
3ca1131e
3bcf20c0
bd0d3b3c
bac28cab
3aa9e621
bbc97fbf
ba93a503
bcadb6d1
3caf629c
3b165a3b
bc92122a
3c8add53
bd0dfe9c
3ce1026f
3d0e51d0
bb59b46d
3d0fb697
3b270acb
3c882424
bc0435e7
bb238202
bd0c049d
b9b98858
bbdcc692
3cc5fc70
bb881fd4
bbe80a94
3c51f4d8
3ccc8a76
3d000c1e
3c2358b5
3c4ceaa4
bcb74a75
3c3467ab
bc86641c
3c902038
3c63d00a
bc9f9cc3
bd0ceb19
bcb776a8
3d03bd7a
bcee73d2
3cb8dc07
bab12b48
3c95816b
3cc8cfe3
bcb62cbe
3c327590
3b83a1df
bcf4659e
bb63b0d5
3b1d7e03
3cd08e70
bc52970f
bd10ab83
3d05f974
3cc8ed82
3cd45ee8
bba6588e
3cfd599e
bc0f561d
bc8495d1
bd03f2df
bcb7a6ae
bc9046b1
3b3ba1ba
bd03a47b
3cc50367
bc61b9d1
bc98ff7f
bb0d521e
bcb3fd7a
3ccbb869
3cd02c2a
bbb17a1a
bc8f2398
bb342d0c
3cb1ef28
bcc09009
3c257289
3c87b76e
bb9ca707
3cd3adb2
3d08afae
3a095839
3c9bc518
bcff67cf
3d05f9ed
bcefc9dc
bc9f2ca8
3c81a08c
3cc97893
bca912d6
3c76a7f4
3cf5ffcf
3af9b4a9
bb29f76f
3ca6cea3
3d05a59f
bc695732
bce860c6
3ca972d2
3ce89ff7
3d0a3651
bd13a114
3befe5c1
3c65e3ff
3b0c14f0
bd020301
bcea4575
bca8d3b2
bbcc29e7
bbfb6fdc
3c478e32
3b780879
3a83f74c
3d120196
3cb6f0bd
3c4c778f
bc844f09
3c884ce5
3cc6c978
bd03fa89
3c8b75f8
bccef048
3c73c583
bc78dcf4
bc659bc2
bc33f52f
bcbb2f18
3a8d43a7
bc138a08
3c67c97a
3cb25af4
bcf1fab0
3bd5ce66
bd076492
bab307ee
3cc14cd2
3cb7c077
3cade85d
bc350c4e
3d073fcf
bd0ab19f
bcd1237b
bcef23c8
bc6439b2
bc4c60b5
bc36f3ea
bd01c559
bb1e7914
3caa7d07
3c6703ce
3ce705da
3b601fa2
3ca197ce
3d11350e
bc25a251
bcbdc915
bb78258f
bb6509d9
bcb278e6
bd0476c9
3c63bd31
bc678a32
3d1175df
bc069a6a
3cd8987f
3cc558f1
3c8887a6
bc13b3e6
bcc7e3e0
3d05fe2f
bd138ed4
bc2ea49e
bb223dfb
3c6f69f0
bc81a5ba
bb686e3e
3bf10c57
bc1b9200
bd0ad2d7
3b7d7477
3cc4188a
bce92617
3b964fb9
3cc2b8ff
3ce4b9fb
3bef6107
3b6ccaf0
bc05ad40
ba80586e
3c73b0a0
3d067b57
3cc70770
bce24bb4
badef31d
bb845534
bc812821
3c21b1a6
bc530805
bce42e1d
bbfae42b
3c567484
bbdc1c5f
3c9a14cb
bcb351f1
3cdd34cf
bd0dede0
bcd8e7eb
bc9dff51
3cf98875
bccb89b8
3c8cddfb
bcdd0c6b
3cd8ad9a
bd0dcda6
3ae1467c
3cd5cc5a
bbc8a761
3d01f1c6
3c0a43c3
3c95f9f9
3c9a79ed
3c9205b7
bcea259c
bb89efa3
3c967e19
bcefaaa5
3cc14187
3c9914d7
bcc919dd
bc6db5d6
bd08a10b
bc6813c1
3c070da2
3b739b61
3ca57e86
3bcb41ce
bcf9a3ab
bcac718e
bc8b7236
3c490b91
3c30fe3f
3c88ee02
3ce44eb2
3cd293f7
bc2f52a4
bc629c4a
3cd44a39
ba89294a
3ce24e84
3bfcf70c
bbe2500c
3c189a82
3ca682d7
bcb52a2e
bcd87084
bcde64c8
bcf625c0
3ccccd29
bd0dc68c
bcb68bfc
bb84a8c7
bca02f32
3c1fa476
bbdab135
3d059042
bcf7f78a
bcb4e058
bbe45c10
3b1e9783
bcf282fd
3ce48458
bc9524f4
bc706f28
bc865ce2
bbd5ace5
bcbab204
bc4e683a
3a34ba04
3b0ee2ea
3cc5dd34
3c66472a
bc20fffd
3c0499b2
bd0e2e8f
3c8ec7d4
3c05fa38
3c65e105
3cafc88c
3c902bd2
3cb224b1
3bdd193e
bce784e9
3c2e7511
3c40ea8d
bcfedcf8
3cc5b7fc
bc21a632
bc07ec27
bc719c1a
bc963c43
bc3d07b1
3d0b302b
bc2dffaf
3c9e1240
bce53eb0
3d047aa2
bc02a726
3b8ce0e5
3b926d90
3cc008de
3cacc0fe
3cd3b8b3
3ca12e34
3cd7f87f
3b3b472d
bd0e0115
3c9d3a87
bd01c861
bc33a67b
3ce8ba5f
3cb52603
3ca89fd3
3bca7175
bd003b43
3cd6509b
3cbe1352
bd080650
b9340852
3b589680
bc8c6aa1
3d0d5b5b
bc825465
3c9325cc
3c6314ec
bcacfbf1
3c216aec
bbc42111
3a3578fb
bcfc7053
3ca8ee80
bc0bf36d
3c9c6839
3c0841b0
bc659e0a
bc18c709
bd01802b
bcce2567
bcf4daca
3d080761
bceff616
bc3a71c2
3ceea8a6
3c583962
3c761455
3d061c7b
3bd66e22
3ce52d73
bb0073d2
3b81afc5
3b85d6b7
bca19a9b
3d00b4da
bccd70cf
3d137a1c
bc71933e
3cf04d5b
3d064486
bcc58f7e
3c659848
3bb41a65
bb8a9184
bd078d25
3cbdc0f5
3ca87e34
3c57ddfa
bceb5253
3bee98c5
bb1c8235
bc808183
bbc8cbde
bd05862d
3c5fdd29
bcb65b16
3be11fe2
3c2f3116
3be8607b
3cb6b90a
bc2ac420
3ce35bc7
bd048eeb
3cb88d5f
3cd64828
ba275903
3d09838d
3cf04033
bc0c3ce0
bcc38a61
3b8a03b2
3ca57630
bc5c1101
3c6c2471
3c60c0ef
bcab5af5
3c4730d3
3c059471
bcf0894c
3cda6e4b
3c7fb343
3cef2256
bcc62074
3d01f399
3c0633f7
bc25f9b6
3d0cdac6
3c88a005
3bf0966f
3ce13e6a
3cdb361d
3c21c006
bc6b42a4
bc93c21c
3bd3ffdc
ba9cab76
3bb1144e
3ca051b1
bc8a0c96
3bf74d92
bca779e5
3c8469d0
3ccbfcb9
3bad5e5f
bc649fab
3b270b24
3cecdfe7
3ceac6c0
bc01c50c
3d0aa69c
bcdb29f9
3cb83b4d
bbd32710
bc412439
bc3d0884
3cd6190e
3d046853
bcc7f197
3c9863dd
bcaa24cf
3cc8b625
bc9ec18d
3d0cea7d
3ce228aa
3c8babe0
bbf8ac78
3c71118f
3a06e14e
3cff3124
bd091bf8
bd016f98
3ca978ab
bd0c88ea
3c20f098
3cedba1f
39e8c3e0
bc7f24fd
bcce1526
bc055bd2
bb8b707c
3cbb4038
ba9e9d94
bca37dd0
bd0291e6
bc1a9144
bceddb64
3b26152a
3cf5325a
3c6a846e
3c86b82f
bbef944f
bcb81679
3cc2d8c1
bc5e8791
bcdbac47
3c831088
3cf36005
3bd3f875
bc4c76ff
bd0a1f8a
bd114111
baacad5f
3cfebe67
bcf33122
bd1730e5
bbe443ec
3cbea532
3d004a79
bc98f1c2
3ca80609
bb9a0799
bc5bd91c
bd02ef94
3ce636da
3c242db6
3cfe887f
bc364960
bbff06ce
bc3015de
39f4e109
bb2a0d61
3c915f2c
bcda2c58
bce3519e
badd6940
bc9cc5ad
3ca4a32d
3cfd34bc
3ca335f3
3d14bac2
bbff27bd
3c5d5ecc
3c521dad
3d05e8e0
bcb96c3d
3b2fec2f
3c9f3a26
3d12beee
bc76a3cb
3c93d796
3c8a9c89
bcfbcf74
3ce96f17
bc2b5322
3c92a94a
3c48a9c1
3cf8a354
bc86ba6f
3d037067
bcee93fd
bc74a9ec
3c3d62b3
3c35cdf8
3cb1c00f
3bcc04ef
3c8c4c6b
bcce7025
3cb5549f
3cf2f308
bca4351f
bcd2d3b9
bcb7a3ae
3bda1f09
3c994064
bcd58d72
3c29f2fc
bb500b79
bb3ebad0
3cdf8704
3d02b6c3
bcdcfb89
3d0cc660
3c0f78dc
3c263f33
bb762b88
b80de6be
bbd89546
3cdb17a9
baffa05b
bcb4633a
3b4690c2
3cb3aedc
bc238611
bcbaf5ca
bcb00d83
3ce9555f
bd005b6d
bd0b5517
bbfd26b2
3abcec12
bc4f839c
3d0dffa3
3cb57c48
3b05c866
bcbf2f38
ba8c8555
3c315d8e
3bbbb894
bc83e446
3d05cfa1
bcdad37f
3cbb884a
3c943561
bcdb05e5
bcd2074f
3d12b853
3cef2ba9
3cb8e98e
bccf9dce
3ca228fb
3ca61651
3cff2ed6
bd158922
3c02c54b
bc7ce4af
ba8377a5
bd07d0bc
bcff9d3b
3cb432ab
bb699e2d
3cd4e52e
3c5f9e79
bd0dd7c8
3d11ed21
bcf1c98b
bcb93ee4
3ca319ed
3cd823fa
bcf29d31
3d1755ae
bc65ec0d
bb656a22
bcedd909
38dc1193
bcf85200
ba6cccc6
ba81cb2b
3cf6d84a
bcf70d7f
bcd366ea
3d02e19e
bbf15dc2
bcee49d8
3c96f272
bd121a8d
3cd9293c
3c7719dd
bb713088
bd16f1d1
bcd92dc7
bc8627b6
3d017962
bb7a493f
bc0b65b5
39d62bb0
3ca22c46
3c0eb485
bc83bb6f
bcf68f1d
bce59952
bc09709b
bb7b5212
bcb5ea94
3c3cdb2d
3cbcb958
3c1f8fcf
bcf36b42
bc8d0f58
bbec02b3
3cf693f2
3c0b69a0
bcaec695
bc794afe
bba4b39a
bc64a297
3c8161a4
3c0ae8fc
3b141100
3c9fd8e6
3cfff0d9
3c76af52
3d023063
3caf44c0
3c9500a8
ba6c1089
bc640990
3c0a8679
3b82f6ed
bcf3d3b4
3ca08545
baa8a954
bce6a69a
bc263c4b
bc771d99
bcbde747
bbd59224
3a8e5caa
3cd5cf43
3ccb9f83
bc5ebec8
3d03878e
3c163bfa
3c8ccf67
bba03903
3cf014ad
3ba7dea8
bc7ff789
bd10bffe
3c85b39c
3cb60631
bd0baa74
3ce36790
3c8a6847
bceeb244
bcf28899
3cbfc2de
3c32f447
bc918a50
3cd847c3
bd00f898
bcd634aa
3bd9b12b
bcd2294b
3ca828fd
3bfff401
3c61fbc7
3cac0a33
bba89678
3cf5d823
3caf5a98
bc5ad698
bd054264
bd07e947
3be6a2d4
b9e318ae
bc843aad
3c9aab40
bc8b4106
bce2653c
bc55561c
3cfe92f4
3c9634e1
3d0b1f53
ba5c7c5b
3c7368de
3cd93c73
3c80a73a
3bd8f112
bd0d0364
bb189ea9
3cde24e1
bc292fc5
3c23ae2c
bbea6b01
b9d75858
3d089cc6
bb388de2
3b4a0734
bcd7cfcc
bd011c49
3a3f642f
3d064bf5
3c656c63
3c0f1aa8
bc2c6253
bce2d4bd
3c30f2e6
3cd4a5da
bc8ad532
bc784bd9
bc1702aa
3cb0c3d7
3d0b1a00
3c87ed05
bcfdd6b3
3c7cede4
bc1f4e7e
3cf4d7e0
3cd9e560
3cc483fd
3d0d5c9d
3c52c95d
3d018eae
bc6ad63c
3c91bfde
3c22b901
3cbd0e0e
bd09e90e
bb22d349
bd102f47
bcb19825
3ba09023
3d02eee8
3ce8be40
3ce3960e
bc01d9bd
3c7ddcb5
bd11bb4b
3c46c130
3d0e0adc
bc9ad136
bbfd9999
3b69004b
3c18e753
bcc76fe1
3c62e02d
3cf881f7
bd04b123
bd0fd004
bc71a1dd
bb97c7ad
bc4d4a5e
bcb8fc33
3cec89d8
3cf55e38
bcca769f
bc84a339
bd05d5c4
3d09f07f
bc121bbf
3cd15d70
bc875f61
3adcb195
3cec6746
bd0a1453
3be9043f
bb27a098
bd0c5347
3aebb7ea
bcdc33bf
3b6122d9
3cae8308
bc5f134d
bc6730d7
3cd27bbf
3c311358
3c31630a
3cc6458c
bcb807ec
3ca730f6
3c98c148
bc5a404f
bcba8e1a
bcbf6028
bc865021
bc496680
bce1a0d6
bcadafeb
bc395219
bcb6b5c4
bc4c5fe6
bd07cfc8
3c402919
ba180389
3cc78873
3c127173
bd0891aa
bb7083dc
3b1e6e35
3d046c66
3cf7c620
3c831175
bb1cd518
bb2b0c70
bc972260
bcbc9dbc
3cb7532d
3c7504e9
bcf34713
bd01d0d5
3c945368
3cf04958
bbe7874a
bbf3b6b5
3ca1842d
3cbd2dc5
bbb18f7a
3d045655
3c384f54
bc8ecdad
bc2c64f9
3c8a6cc3
bd033f05
3cfbf62a
3b8cc0ee
bcc3f719
3ba34a4c
bc26f3cd
bc341d35
bcbcdfb1
3cc75e3f
bce392d4
bca4f121
bccb3c4e
bc82cd70
bc8f4cda
bcd927e2
3cb35272
3b0634cb
bcad7b48
bcca553b
3cf5f98a
bbdea31c
3c8e6ce3
3c753caa
bbd8c804
3cf194bc
bbad3636
bcf67d96
bd0d6b9f
bccb1dcb
3c075929
bbe7ba70
3a2d258d
bd103188
bcc818a4
3c86c2b0
3c9d6331
bce8adab
3d0705c7
bd01a58c
3c92d5e9
3b66664b
3c9d46e5
bc9e8e23
bcb24fb8
bb8e5a92
3c1b70f8
3c920b6a
bb571d93
3ce90b53
3cd93519
bce094a8
3cba230e
3cfc3883
bd1064cd
b9b3c9aa
bcf445b7
3d0461fc
bc6790d8
bcd319f5
bc9d9625
bca64fa9
3c2d063c
3aee566f
bc886b1d
bcbee307
bc846646
bc058f17
bbde13df
bcbdcf53
3cf98c33
3d0b6e51
bca2d8b0
3cd9e52e
3c5e2304
3c567aa7
3c973da5
bd07993d
b97bf557
bd021c0a
3c41f862
383d322d
bd0a28c2
3bbe40ef
bacf2d4e
bcf11f7e
bc374f36
3c7ced9b
3c1d44d8
3a58a4e3
3bbdba12
39d1dbe9
bcb082b2
3cadc974
39d764b7
bb2458e2
bc559c74
bd05eace
bccaf557
3bdfda71
3cb05a01
bbf71231
bc6c2de4
3cae6765
bcedd118
3cb042f1
bce4d08e
3b510602
b7e54564
ba85b4c2
bb17c03b
3b44323d
3c3d0395
bc0dc5f9
3c0d6e1c
bc858b30
bc7581e1
bca62f93
bc8e772e
3c785dc6
bcc674b3
bcef2f30
3b3cc601
3bb3f69b
3ab8fb9b
3bbd6013
bcdeb8d8
3c2bc42a
bce0c1bf
bc7fa348
3ccb6e40
ba580fc5
3cc6afd4
bcd194c2
bcd7763c
bbe711c2
bd0eacb6
bc8d24b5
bc6979f9
3c8542a0
3c6aa214
3b803646
3d0fa9f2
bd08d3d8
bc7bc67e
bcad00aa
3cefaeda
3cdd5f3e
3c92eb37
3c8269cb
bc5edd8d
bce022d2
3cf06ea6
bcadf5ce
bc30742a
3cffa49a
bcfa77e8
bc163d8b
ba164154
bcab6f9d
bcc6a568
bcf75d0e
3d11d43c
bc85a410
bab9db1f
bcb0d31e
b90b330a
bcaecf34
b8d5e617
3c1f7114
3c527b03
bc9ef8e1
3ccead21
bbdc63dd
3cb8082f
3c2e668f
bc3b6bfa
3c937c64
3c878e8c
3cc453e7
3ccc2e11
3c505f94
3d0dc4eb
bcca4b8f
3cd281b8
bb85b02d
bc99fad0
3ccd23c8
3cf13c8b
bac0d163
bc38a384
3ca599ee
3b22d7c6
bc1ac59a
3cf2f340
3c30016f
bc8311f4
3cf94be5
bd05c7dc
bcdfbce2
bcd97b2e
bcc77fe1
3c91fa21
3c168ab6
bb45ea04
bcc6105e
bcd7f80e
bc6aea31
3c64ab9d
3c3c22ab
37ff0196
39d22685
bb9d7d41
3c5e867c
3c273443
3aeb3086
3c3a6509
bca5758e
3ba32166
bc8f57b2
bb77f043
3cffd23d
bce996dc
bd11a9a9
3c96e5f6
3ca1f752
baaeab99
bcec1986
bcfcaefc
3cb2ab1f
bceb3844
bccff9ec
bce3695d
3ca4794c
bb8d4b00
3cd8072a
ba9beeb9
bc2233ec
bc17c65b
3c46857d
bc77aab7
bc21bd9a
bb91a756
3c60d3c5
3bd0cf82
3cd9c787
3c7c4071
3b15cdf7
bb4ce168
3cc53c6b
bcd7debd
3cd9f9b4
bd01b9d1
bcacd7b3
badb1f03
bcd5975d
bc453045
bc49fbaf
3d02698a
3c233bac
bcdf020b
bd1005bd
3b7a3083
bd104add
3b6293ae
3cf2c5c8
3b346e5d
bc6d19bf
bcd9dfca
3c4a0509
bcd9fae3
3ca99a32
bc1d7407
3c53c299
bc944297
bc86e10a
bc8627c9
3ca44b06
bc302226
3c9ce899
3cb10630
3c25bd47
3cd7992d
3c762e29
3b0cc1f2
395beccb
3a99e186
3cd3ca8f
bcc38e05
bcc94b0e
3bfd3eea
bc607a80
3d047c7c
3c56b1f8
3d12f8c1
bb1219cb
bbc61cf9
bcabe52e
3cfe4e65
3d005731
bb5901cf
bbd50a87
bc430460
3ca516f1
3c8b154b
bc5205c5
bce47eb4
3ca2a8ea
3c96f485
3c17a8fe
bca80dc1
bc41451a
3b5cfd01
3b9f7cc9
bc5225bc
3c178078
3b5c80d7
bd0c8748
3c249c4f
bbe928a4
bbe6f8f8
3add562e
bbb096c7
3cb61882
3c276e81
bb41ecf7
3cb0fc8e
3c484649
ba9677c2
bbc80ddc
bcb5c2b0
3c3fd787
3aadeb4c
3cbf0536
3aeee046
3cb9594d
bccd64ee
3c93afef
bcf69aea
bcb5d602
bcb1e9d6
bc52ea56
3ccefcae
3cc882db
3bb8f37c
bba7adbd
3cdfc4b0
3b9e0ece
3cabfa1b
3cfb23d4
3c95fc07
3c1367b1
bcae9916
3ce248ee
3c22c215
3baf5a89
3cc6a966
bc6c6d17
bcaffbe1
3d07a4ab
bcf9649b
bcbbd4f9
bbfdb287
3cc92e6b
3d101dd7
3c43dfc1
bcb5008b
3c21daea
3af9bf59
bcd51c92
bc3c2160
bcd25074
3c710142
bcfd8d68
bca43a1e
3ce9d4ae
bcde9896
3ca3973a
bc3f8ba4
3c9f5427
3cd8482c
3af5d80f
3d0d2768
3bda6a9c
bb29eabf
bcc2385e
bbf0b2f1
3ce681b7
3cf2bbd9
bcad9dd7
bd05617b
bb9a5b52
3d064ca9
bc2578d1
3d0fcfd7
bcef43b2
3c7007ca
bca8877d
bcbfe5eb
bc9e2637
bc212c44
3c6c3618
3c7d7ad4
bc7867d2
bcc47097
3a49a4c8
bcadfff3
bbf0df94
bba4f4d8
bca95ee7
3d118c2e
3cf42a79
3a4d552f
bb569f84
bb90597d
bc8fb874
3cc3b803
3c72ee5f
baf12487
3cae2e28
3c73ceb3
3ba6fd9f
bc267ffc
3a915f37
3c382b2d
3cb938ca
3c18bc9f
bc9a5980
3c48bfea
3bbd9de1
3c094a45
bc070d84
bcb805a3
3c061b94
3cfaa9a9
3bdc0c74
3cfd7661
3d015658
bc32acfe
3bf54800
b9a7e9dc
3cb48232
3d0d1f1a
3b1a686f
3ce43d9b
bcb5bce1
3ca6e0cf
bb4c7548
bc947e7b
3caed1a2
3d032443
3c1fd3bc
3d0ae49b
bb10e470
bcd66108
bbe961e4
3c5b9ff0
3cf9e982
3c29aebd
bca5ea68
3ca6094d
bc805010
3bf09407
bc9d609a
3d0ffd91
bc834ffc
3caee10e
bce27843
bc160dbf
bcd1e45d
bd0626bb
3cc735be
bcdeecea
bcecd3eb
bcc2bae7
bcbf9ddf
bc76a4e8
3caf4054
bb32cec5
bcb34acf
3c8c1cd9
3c07da8a
ba63d3b4
3c47ade3
3bc9412c
3cb9b7f8
bb07f1e2
3c1315ce
bd0a7301
bd05f88e
bd081334
3c99447d
3bc13f05
385bd128
3cc97eb4
3c6457f3
3ab20752
bc54682a
3d0eb5f2
bb088da8
3c5e8f23
bbc91735
3d0e6fb4
bd06d16d
3ca29968
bc241971
bd015588
3cc915dd
bc826e30
bcf4bcdb
bc4ce395
bbb16bb1
3bd45374
3c3c2947
bc93c3b1
391462ce
3c681f72
bd03b52a
bbcd5d41
3ce1beb6
3cd3cf94
3c85da14
bce35917
3caca3f5
3d0ff4f5
bc963bf1
3d00dc8d
3d090134
3c927ac4
bc121513
3cac6bac
bc488fda
bc53fece
bb16d663
3c7a06c4
3bc366fe
3bc1f171
bd035456
bcd76260
bd049334
bbc3042f
bc17a6aa
bb98decc
bccbd04a
3ce1c4f8
3cdd57cd
3ce5bc0e
bb06138f
3bf29ebf
3ce9357a
3cde06d1
3c11bbe2
bc14d713
3c373c00
bd0d6376
bbb60b38
bc10fbe9
3c23be4a
3a349203
3cf06199
baef06d7
3d0a1a7a
bcd7f88d
3cbc0f5a
bd011627
3bbe9e20
3cb595ed
3c8c034d
3bea0ee2
3cf0b115
bcc75567
bccc73af
3972621f
3be97512
3b99a6e8
bcdb86a8
bcbb9581
bc43eaa7
bc8f639f
3b9135f1
bc2f84d6
3b04aadf
3afdc6cb
3cc87f32
3cbfb56c
bcf5bcff
3cc194de
bc4ed1fa
ba43eb3f
bc04c4b7
bc3785e8
3c59dd0f
3c2bfdf9
b88335b8
3c0c5e95
3a880984
bc3b5b18
bc89ace2
3cbafcfb
bcbfce4b
bc8c650b
3b581e34
bba3037f
bd06cb9b
3c81eed4
bbb96c92
bbdf4365
3ca44491
bcb7c8bf
bc5a829d
3c6913b7
bc66aa4e
bc82784f
bc47c741
3d008448
3c177b03
bd0f593a
bced5c7c
3c1dcaec
bc9c05d8
bc9327a9
bc838fee
3c218485
3cb6bf73
bc302f00
3943ea0b
3cb20404
bbe577d5
bcfe936b
bc3e1871
3c98fa30
bd0513c7
3cc0b1b9
bc82b4e6
bc8ee39c
3cc42ffb
bcee390b
bcb3d797
3bdf68b1
3d0e2575
3b8d338a
3c97e54c
3b1aa28c
bb8f7424
3c9dec1a
bcca0936
3c5faab3
3ca7c8fa
bc8ed814
bb688227
3cd4b31b
3c2ab8b5
3c0c778b
3cd07290
3c8ffbd4
3ca4de3d
bcf2469d
3c4bee90
bc0ef830
bcf688e8
bd03564d
3cc21e4c
bb66cf59
bcf5fd58
bc8bfdac
bab4df42
3ca4fc0b
3c77cac8
bcd356c2
3ca8e822
bc34618b
bc8cc80b
b9e419cf
bcead441
3c3d504e
3c9e5ce4
3c290152
3c4cd40e
bb2a4079
3c8bca35
bc6685fa
bc8937d7
bc9f0978
bb19c921
3af1f248
3d036545
bcab2daa
bd001cbf
3d015114
bce71818
3d08aca0
3ca2018b
bcd37a18
3c392abf
3bfd79de
bc862846
bc38d52b
3a74b9bd
3c7c9437
bc9babf1
3c081336
bd0aaf9f
bd07952c
3cc18355
bccb281d
3c551535
bc47cc7a
3c93d645
bc78659e
bc87e4b6
bc0d9cd9
bb8f007b
3c9afb0c
3b867bf7
bcad6e99
bb149d1a
3c0a98d2
3c12f710
bb94dd5f
bc73cda0
3ca1d6e1
3d0661fa
3c493b8c
bcb2af9e
3d0d798b
bc2e19a4
3cb991a5
bcc2f2e6
3ace9eed
3d10a71f
bbbdee46
bcb0c7a5
bb309db6
bc9971a6
bc874936
3c83c269
bcba83e2
3c93b447
bc6ee8e3
3d06671d
3d0aa9f5
3cacb52e
3d0e68f7
3d00a221
bd0e50bb
bb840ce4
3c544b07
bc4110f0
3cb33854
3b845108
bcaab1f5
bcf329a2
3d0d2a09
bd019e26
bd146b9f
bc018bf2
3ccd15a7
3bc5c9c4
bc0e92ac
bbf0fdda
bcefb69a
bd10f35a
3bb54ee1
bbcd96c1
bc0127cf
bc304406
bcc60782
3ce8f7ed
3cfef364
bcf959c9
bb0ee747
3d03b07b
3b21675f
3cccde03
3c9b3e27
bb0713c7
3c07cd8a
3ca65dcf
3c7c06c6
bc7625b8
bcbf69a2
3a57aa82
bc9c514e
3c0e0706
bc8f2ff0
bd0d97cc
bc84c756
bccfe5a3
3cbfae40
bcbb4a45
bcef5860
3d033947
bc419ffc
3c9241f8
3cd931d8
3c65a4d4
bce85ced
bccedd54
bc1ca703
bc0e7084
3cc2d657
bce59857
3c8079ce
bcc8edb9
bbb034ce
3ca1d210
3b977643
bcb91953
3bfa5e7d
3b98f902
bbae7309
bc814e5e
bcd39304
bbfdbd4d
3b36d009
3c8587c4
bcb2d80c
bceebd25
bcfb61c3
bc7c3cc4
bc12d784
bcff12b7
bcf5e7c4
3b14f205
bcfbb040
bd0376e1
bc11aea5
3ccb9a02
bd004ec5
bb044602
bc306048
3d0f6762
bcb9e6f0
bd0f904f
bc832f71
bd094e82
3ce4a700
3c8e0a4c
bce8adda
3cfa6605
3b56ae26
3d118daf
bd067589
3d081787
3c307e5f
3d0dbb37
bc5e2e5a
bd0f7e19
