be539293
3e9c45b6
3a671231
3d79707c
be211f9d
3eb4bfe7
3dadab9a
3e8d9421
3e9e1cef
be842dec
be9cdb05
bdf12aeb
3e8c7b71
be6cd24f
3de02d3d
bcaf4dc5
3c22979a
be6db881
be898510
be428d1f
bda5aef6
3e60442a
bd8a9b40
3e7fc8a7
3e5066cc
3d702ed7
bef97ea5
be02c750
3e97b9d4
3e0ca543
bcd581be
be93aaf0
3e9339f1
becbd756
3e03afbc
3f1ab86d
bec86f66
3e29a56e
bd8f9149
bdbf9068
3ebe3e84
be058289
3f19ce10
bf3d76b0
3e93d945
be95f5b9
3f0754c0
be9972c7
bdffe76e
be9654ee
3f13fc1f
3e2be00c
3e726b15
3e581dae
3f13ec63
bc069dc5
3e82382c
bdd6cefb
3eb645d5
bf040797
bd4fb512
3dc6ca07
bf3094a9
3ef80825
be820a38
be9104f7
3e7bffc7
3e7bbfe1
3e74ab1b
3e3699b1
3f5b9204
be0795a2
bedbd9f3
3df7549b
bf430092
bef4bf55
be7eda73
beb7347b
3e349811
be83583a
bf1e4a3c
bcebea5a
be1ead31
3e2b1787
be6a18e9
3f0f4640
bde6af64
3e8c1996
3e64ce5e
3e12b7c4
bef6b153
3f0e29da
bdaa40c3
3e8c8d34
beb08659
bf321284
bc12a7c5
3e439f5d
3ecdeb2d
3c0f574f
3d31c5f5
bdbeea41
3f0d47b9
bf1dc78a
3e20cea3
3e90c975
be43f950
3db1c335
be61f1bc
3ddf1f3b
3e0a2a48
bbdca561
3da89eb3
bdab0dc9
bea471ba
3cfd684c
bd567406
be81aad9
bedd9d9b
bd04cae7
bdaede00
3e85545a
3d8e4292
bdf4b19c
3ef1605d
bd83de1c
bf03b509
3e3799b9
3d763a7b
3e963810
3e1780f4
3c49410b
bf30f712
3de9f6c3
3aa7a7cf
bd136de9
3dee0f5f
3e2e79a9
3e1a0980
3dc27810
be6f9a6a
3e687ce7
be8ca483
beb30f18
bee47e03
3e82304e
bd03e1dc
3cb07bba
be4a68e1
3eb72c84
bf11622a
3cbfc895
3f278ffd
3eba7575
3d8d160f
3e287c70
3e8c2a21
be891b3e
3db4c8e6
beb20250
bdc92663
be1ae622
3eb04372
bd9770e5
3ea3c8ea
3e66ee3b
3e48c497
3e745608
3de64466
bf275158
3d7205f5
bf251ed7
3d5bda1a
3ab2f4da
bdabc842
bcf888cd
3e95e6b5
3e05d1de
3e11437e
3e14349a
bdc335d7
be6c8e04
be7956f8
be900699
3dae737f
3c992ed5
be6b64e2
be086d51
bd661353
be8c4cf9
3d343b0b
bb28deb4
3ef74725
3e2ed25b
be57d2f0
3f3c9a63
be913f53
3de63ec7
bdb8ef95
3f1071ac
bdcd2fa2
be45535f
bec86209
3e70573a
3e9d04a4
3e487a01
beaef4a5
3b643af6
be9c7560
3d42e5ac
beb7699c
be2bc27a
3cd8fcf2
3d9e2d17
be17b3c9
bdcf17fd
3d909932
3da712c8
bde00ce8
bd2b911f
3e5ca484
bd20fcae
bf4c8923
3e2b8bcb
bdc4e606
bde9b359
3f990f6c
3e8c073b
bf34df69
3d594c50
bbe43d8a
3f02a3e4
3f1fecf1
3d048b71
bed2c071
be7e86f4
3dfbd22e
3dca5aa9
3eb57719
be62662c
3eb0813c
be3261a7
bdacdf36
3e86265b
bce58752
3e9f5d0b
3d83c10a
bf51cf92
bc36df59
beddfb7b
3e2978b7
bf0ec5f0
3e1b00a9
3e93a52c
bd105c01
3e4e1b4f
3de8b1aa
3d306445
3e69a17f
3e70a25e
bc520088
3eb8a4b8
3e98bac8
3e7a5f23
3d41d0c5
bbe5338c
bef36e28
3dc77b59
bd60acf2
b9d9b0b6
3e3b73fa
bda60a1b
be1d9f3f
bf1cc084
3e61462b
be6260a8
bee67884
3e9cd717
be7f0529
3cfa4598
be67755c
be3d8a3f
bee29f16
3e1ac8cf
3e82cd3f
3ecc6dd1
3eff6b76
3d0fc052
be28c7bc
3e5ccc1a
be8aa6fe
3c65ee40
be8d9250
3e18e246
3e927ec3
be5818e9
3e8d1818
3e8ffe6e
be18eb98
3d288620
befc0497
be074ddf
bed7ad9f
3d9b7790
bf1423dc
3e8c011f
be94281f
3cacd105
3e9e5ff3
3d86401a
3d927c03
3d258874
3e8b976c
3e60832b
3e990407
3e1026a1
3e3bee83
3e29292e
bdbc8d78
3e12e0db
bb62b512
bdc2a81f
be13ec8f
be5f7927
3ebde57c
3dfbfa80
3eb3aa9f
bdb9ed0a
3d2328c1
bbeeda37
3ecaee28
bd6de01d
befbd1a5
be8ab825
beacca4c
be601d52
3d08d367
be814b3c
3e7ab81e
3e1e15e3
be8ea8be
3dd0f737
3e494aa8
bb8c7634
3c0ef6d9
3e3be0e6
3d58920d
3f5120b1
be893ae1
bcc1881b
be3dbab8
bc83d46a
3c84e71a
3da38bc4
3d6bf8ff
be2e099e
bec61642
3f509f77
beefdc2e
bd77fa52
be6eb855
bd5294ec
be786bcd
3f09e9b3
bee72459
3ea1dbf8
3ed7f0f8
3ec13089
3c55bdf4
be426482
3e0667fb
bef89174
bd8fb777
3e08d8ef
be95ab7d
bed83966
bec14ceb
be83a439
3ec9d519
3e845ee1
bd06c98e
be58660d
3e63468d
3ef38bf8
3e4902c2
bde800be
3d1dbd85
be0fd543
beb16221
3d7ff7d1
3ebafc96
be159f0b
bd1f4de3
3ed9631d
be979ed6
be797c01
bdc74f1c
bed1163e
3e2d186b
3e044a17
be85d142
be718e3f
3e5cf921
bf30be95
3ef91217
be0166bc
3ea3ef6f
3ccac512
3d804823
bcaa59e5
3ee7b95d
3caad1eb
bea9f951
be86727d
3e955ca5
be11d724
3d441cd5
3c51ea9a
3dc2078b
bc14dde4
bd975cf6
3baca376
3dc3132e
bd4d669c
bd583138
bbd2d3bf
bca81420
bbe580e3
bc65d693
3b1d131a
3dabc109
bd324a75
3d84bcb6
3d7c4908
3d338f5d
bd60962d
3c8ab78e
bc1ed0c0
bd31266d
bdbbbefe
bd3cfcdd
3dd1ab59
be6affda
bc83aff3
bcb44e5b
be2118bb
3e1accea
3e572af4
bc91d74e
bdc3d2db
be20b548
be372ca4
bd2de8c2
bf0f97a6
3ef361c6
bdb8701e
3cc2f6a4
3e4abcf7
3d8cbbf9
3e4b729c
3ce180e5
3d016c93
be1fcc67
3d19fe2a
bc84d3c4
be57c9bb
be8ef9a2
3e1a3a1e
be71fe4f
bf079b27
be385930
be972c5e
3e04ec59
3e5e59ac
bc0d0562
bed16215
3df6e778
bcdccac9
bdae3395
3d8f039f
3b5e122a
be9c3233
be559a7a
3e3193f7
3ea627de
3d715121
3e7e54b5
bd61ca5f
3ee575f8
bd961784
3a1132fc
3ca922cb
3eb32eb3
bdf37b1f
3ab24c35
be6d183e
3ce343ea
bec58730
bf06bba1
3bfdcda9
3f22deca
bc60b549
bd3d7f64
3df0b6f9
3ea4f501
3e8d3a41
be1c1f51
3f0122f3
bf63c889
3d397b80
3d93426a
be7d98e1
3f011f04
bdef4816
bf18af38
bd7ece4d
3f113251
3e026ee5
bd8db946
bdb88b27
bca7605c
bdf11bd5
be0aca5e
3dd988d4
bda3ab91
3e299a7f
bd5de32d
bce1fe37
3eb502a5
be738a4f
3e7ada84
3e77e23b
3e06795a
3ea414e2
be1dee26
3c094122
beea6f75
beb069e9
3d4dac16
be83bc4c
ba640f31
3e830c00
be2e0871
3e2ac5fc
3ebf71ea
bcf59a88
3e8ffd74
bbe165a5
3e1978d7
3e11891c
3ed589a1
bd7f6781
3d6e04b6
3e9f0fd4
bca1958c
be34442c
bd8074ed
3e10fd39
3e80fcdf
3e1bae5d
bebfe89a
3dc65441
be4b2f34
3debb3a7
be94cdef
be188367
be9b1cf7
3d888982
bf027eab
3cb003b1
3e073623
be331172
bceaf58e
3dc4ee39
bdd2b9f9
3d2a3660
bd55e181
3d37c23d
3e0cb411
3e014019
3db1414c
bda34c48
3d846f19
bb75ae2e
3db35946
be226ba8
3dc0a495
3d989aa1
bd736fba
bce50ec2
bce90839
bdc62936
bddd5d20
3d8072c6
3e2f4cfa
bda48ca4
3c1cf4b3
bd46f5df
bf3a3a50
be967c12
be27016a
3e8ef29b
be2dbfd9
3d612e05
bd7c5723
bd5f37d5
be27cb0f
3dbce17c
3e15c6f6
3cc88ad0
3d99a200
3ec2d500
bc8fde71
3db7ca39
bdfd5e17
bec46a0c
bd642685
3f106862
3e64c4a0
3e394da4
3e8771ba
3cc1dd4d
3e829f99
be530e49
3edf19e9
be265408
be861b08
bbbbfc6e
be5d5e20
3d362ac8
be127d96
be510735
3ca3d760
3e04a3fc
be3eecbd
3e2ec930
be045ac3
bdb86971
bea83e91
be606d13
3d0b8427
be830c17
be110dfa
3eed91bd
3e2d6200
3ea81063
bd842a87
3e0c9acd
3de3602a
3e6fdd33
3eb35519
3ec141de
3e1dcea0
bd76bcaf
3e3a2696
3de892e7
3db95bb7
3e15979f
be7cab63
be380fe1
3e6fdb7a
3e866331
bcc1b93b
bea712bd
3e42c3e3
bc0342ec
bd3689a8
3edf5328
bf415ed2
bea8a221
3f0419b6
3ede0586
bf044fb2
bf1612e1
be63ce91
bec9f297
becbad53
3e751643
3e3a577e
be4908cb
bee689a3
be9bdde3
bdd3b081
be14f7f3
3cae6386
bce44b08
3e9b48be
3e4f777a
be1c3ce0
be9ff143
bf21a8dc
3e0fc3c7
3e86adcf
3ef4007a
3e958b17
3e35dbc4
be04a39e
3e88a370
be13211b
3ce8c19e
3e0631cb
3de02abf
3ee765a6
3d26393a
3e13535f
3e7e4888
3cb63b1a
3cfb2ab4
3d885e09
bee93cd3
3e3c2534
bddd2b7b
be41182d
bd45a45f
3c822f49
3e926fbb
3ee0d761
3da6062e
3e5c5a4f
3ee30a42
bcf64879
3ec330d7
be581aae
be7d43e0
bf260df5
bec0aea6
bec4d94c
3e2226c4
bf13dd24
bec1b566
3efaaca6
befeab6f
be48b77f
bc88b7ba
be932f63
bbb803fb
3e5fdec7
3e7f049e
be64ab84
3e8ae222
3e6f215e
be92c3a0
bed0aca0
3eaeb0cb
3e3d92fa
3e4071b5
bf1b87c8
3eda00ce
3ed190fb
3e3aa301
bec32a95
be410dbc
3ec6bde8
3ee0d977
bd6c9c62
be02780c
3ea2823d
3e75bd7f
be199bc0
be6368ce
bd8ae32b
bdf71aaf
be842238
3ec47adf
be272a04
bd45c043
bd6f4a2b
becf4050
3e97715b
3eb9a537
3db2d0da
3dc9a3c5
3e748cfd
bf023a3a
3def7006
be1b0fba
bec866c9
be715cd2
3eb1fb53
3e89ab58
bf287b21
3ed277b3
3dfbf392
3ecb39a4
3f2b2f1a
3c8bdae9
3d292894
bf08f2e5
3edb3742
3f28097e
bf0054ed
3d1b621f
bf0add16
be9c7a90
3dd38161
bf5e6b78
bec7d05e
be6b1b4c
3f57b088
3f0b0189
be6accce
be9cb0b3
3d84344c
be0b37d7
bebb312f
3eebe7a3
bd0aab55
3b64d30d
3eb3d2d4
bd06bfac
3cccedd1
be346969
3d7c85f7
3d4da04f
bca161ad
3dc23ac1
bdca6062
be562c06
3e79557e
3e8b027d
3cc40886
be84492c
bdbb6b81
3e847747
be9974b2
3ea180a1
bf116ea5
3cf7b7f2
bdebd87c
bcd683dd
3e6677fd
be608aa4
be19053d
be2e4696
3e791a3f
bda590fa
3ebca5a8
be8b07d5
be97448d
beb1652d
3e7c3a7c
bdaa503b
3e73350c
3e936a5c
3e8868d5
3d2b0e55
be180bac
bf0c6b8e
bddb073f
3d75932f
3d2881cd
be436729
3db5efab
3dc23689
bdb01cda
3eb9257e
3deb1a4e
3e56c760
bdf1e78a
3e9254aa
be75ff6f
bcaee842
3d74215a
be1ddb1b
be01966d
3d68c84d
bcf51e2f
bd96d273
3e8bf214
3d54a0bf
bd12d39a
beb823b0
3d79062a
bef3b5bb
bebdf55a
be1ffab3
bcfe1ce9
3e76737a
3e297aa4
3d9d7fac
3e93cff8
3eb4ee8b
3dbd2ff5
bce822f1
be5321a9
3e65e6e8
3eb4cade
bd8b00dd
bd93e17e
3e1fe639
3e20ea16
3e4b4b06
be441530
be34abc8
3e08c9fd
3deeabc8
bf384f62
3d609de9
3e2a94f3
3df579e9
bdfa4da8
3e18dc28
bed8fe72
be30cf63
3e0ef688
3e11a592
3ee3f57d
bed8303b
be536c5c
be2bec77
bc198b2b
be8ed385
3e9b24eb
be3bc263
3e8ff915
bd4b8fee
3e5ff19e
3e57953c
3dcaa4d5
3e34ae6d
bd219fa3
bc086907
ba6e4e10
3e73883d
3d99c33f
be94e358
3e81dd6b
3d417170
3e9d20b8
be93d924
bcd194d1
beb0cb44
bd66bfa9
bdeb8e0c
bd788db6
bddd81b3
3da03966
3e05c5bc
3d2fbd9e
beae26d9
bc8617b3
3ec3151d
3e0fc361
3bcb880e
3c012322
bd18e40e
be0e2488
be7a004b
bd84a156
bc8f5394
bd795c74
bc49aa56
bd8fe1aa
be302616
bba1d45b
3d529ab1
bbdb04a8
3eacbd49
bdabdf1e
bdc95f6e
bd8fd0b8
be61c32f
be5ed638
bd5038d4
becf58f7
3eebf8bd
bebf9acf
3d868acd
bea68b31
bebee4a9
3d85b814
3e7f8a15
be3884d7
3db7d4b6
3e24e376
3e3b063b
3d818238
3eceefa7
bc02e97b
3e960a2d
3d4eb1c9
3e89e70b
beef3269
3e093925
3e2d910a
3e10cc44
bd8a4a42
3e191dd0
be70c89c
3c8d35fc
3c8e6249
bd40d174
bc39917c
be353924
bf15b7cc
3e117f3e
bcbc22a0
be94c33d
3ed78599
3e90a843
3e82814a
3da8db47
bef758ec
be252f1d
bf24c9e9
3db6585e
be458590
3e178df5
3e112b1d
bc918255
3e5ab305
3ed7ed72
3e5f3c44
3e919ff5
bea87d68
beff4619
be8b865f
3df6755b
bee58577
bd9d0117
bece9c4c
bf1ff9ee
3de13fe7
3f40c090
bd9b0304
be837152
3d83f243
3f15db0e
bd98694c
bdaab7e8
bd0c963a
be22b066
beb43a73
3eca10f6
3de2461b
3dd4da24
3e4c666a
3ed34ae7
3e6d0a1e
3e880611
bea5ff42
be8819dc
3e9e77f6
bf13c661
3e24cb4d
be49a575
3e16d065
be035ab1
bed08859
3f13c1da
3d182969
3d8ec1fb
beb9b57c
3e4aa03e
3df3d715
bf0de9dc
3dc8ea80
be9abd7c
3ed649cd
3ef4b9f5
3e868499
3e9caa61
bd2ce00b
3dda78f1
bd718984
be5e0d14
3f0294fe
3db9b63a
3e8cc20a
3c26e8ec
bec99e75
3cac3c0f
3eeb88ea
bed5fddf
be333b74
be89f789
bc876282
3dda0db0
be22d5e8
be09c7a6
3ef38f40
3e2ae12d
3ea3e368
3d91c5ad
be0d5f13
bdb2986f
be746d3f
bd4af04e
be91db7f
be68f0e0
bc1dce3b
be160238
be526f01
3ebf71d2
3ecd19d0
bd4d9fab
3da72135
be3d3b39
3d1aca85
be10ca4d
3e6bbc5e
be71b9a0
3e022953
3f02d2d6
bebcf069
be8cab8a
bd7a4cf9
3eda4612
becc23c8
3e8c3b91
3f11ab9d
bde0c87a
bde47f89
becee3bf
bf05ca1c
3c9de409
3e924d33
be6c8a22
3ebf488e
be03539f
be66414d
3e334785
bf076638
be72a977
bd94b6c0
3ed53892
be06c32d
3e56126c
3e86f4d8
3e8aae45
3ca8854a
3e94c3c7
be6222cb
3ed98415
be57ec1a
bc815676
bf73ad4b
3e400d5d
be1ee4f7
3e2b854b
bdaaf2af
3e271753
3eab425e
bdbdc2fe
bd5b3e48
3de1dd15
beb05697
bdbada39
be949fb9
3e8f68af
3de8a0c4
3e375990
3d4dd798
3e5a80de
be3ebb3c
be94917c
3d309bde
3e5fd6c3
bd0def64
3d154a0d
3d85a801
be963efb
3d551166
3e313a2c
bd889d79
be03be43
3e2399d5
3c871b67
3ea68111
be86c0b6
3e402767
39af2c87
bd7b1fc9
3eb3210d
be5a3b97
bdf32b47
bde3cc3d
be383386
bed5a99e
3cff2373
be52b507
bf06c63f
3ec5502f
3e12b77a
3e8e025d
3e095a1e
be80b990
be44305c
3e4ec4ef
bd71fec2
3ce3577e
bd42657f
3e61de41
bcf4012f
3ea04ea4
be87acae
bd55b33d
3dbf37ce
bdd4a330
3e3441f1
be85f33c
bdecb416
3de3e3fc
3e3f9150
3d1ccc2e
3d02d79b
3e6cfe34
bd202afb
3e22bbc8
3d922cab
bdb9186e
3e4c60f5
3d00bbf6
3da3bdbe
be9d13f2
bdb1a403
be05ab70
bd1de356
3dfa2b8e
bdb449f8
be1abb04
be467a20
3dc25e69
3e913587
be6b7187
be45a50a
3d01efe3
3ea92b6b
3dd34cf2
3e557559
bdd6e9f4
be9b2e7d
3e0f4bf1
bee37d41
3f003c8f
bdebee57
be94fd24
3e8849da
3e0fb045
3e078237
bead48d3
be8bb12c
3e5dc660
be63d948
bb912572
bdcfce30
be25c47e
bdafa5f5
3da304fd
be9576ec
3e8e5c50
be2c9124
3d7ebb0a
3e40e732
3d8f5e27
bd7c065f
3da277fa
be4c2d42
bcd43fe3
bd698780
be920db6
3e8af6d7
bb9f1aaf
3eb2f55c
3cbcda55
3a9f8759
bea78312
be392b97
3d847687
3e6698af
3e1f7bb2
bccc6f98
bdb93277
be4557ef
be9e5e6f
3d9111a4
bf25a0a2
3eab46af
bea8f0e1
bcba2d5d
3e9e808c
3d50458e
bda035dd
3eabd042
bef8f1b2
be5e40c0
bf3b152e
3f0c4d8c
3ec1faf0
3e8f32d5
3e5dda54
befc2e25
3f0858c1
3e348c69
bdc9f1a6
3d25997b
3e15167f
bdf1f104
3e827716
bea83ce8
be0856df
3b08843a
3ea4d390
bd16d965
3d918eb6
3db9f264
be392e93
bec7bf65
3dcba6fc
3d5e4885
be479685
3d88a841
bd1e883d
3def85fa
be6e8d87
bd9e5a34
3e1c50b1
3e01ac3e
be596e26
be3f04f7
3e0344fa
3d958549
3e0657f1
3e1884d6
bd1bcb9a
3d65cb4c
3e3b8d45
bdc963fb
ba5e8918
be20631b
bdb09c4c
3cd4cbde
3e02d10d
be42103a
be00b716
be14f222
3eb98e4c
bd8a1399
bdeb00af
3dcc948d
3c6f315b
be04cde0
3d7b3f5d
be0097b2
3d77c0bc
bc5f4db5
be7dd155
3b3b5e05
bdf7fe7e
3e4cce34
3e817dba
3d2f2fb6
3c41e5a2
bcd6af3c
bec8d222
3e2659cb
3e5298e3
bc509863
be4951ef
3e433d28
3eaab8eb
be4b9865
3e9c96b4
be96f538
3e33d334
3dd81872
be826355
bd7b8a3e
3de23beb
3e03a4e9
bdea28f1
3d9c50d3
bd42d49b
3e52a6cd
3b6ea97b
3e2ee78d
3d7e0693
be01b125
be91a4fd
3db9a8cc
3c77d6b9
beeee145
3ebd77fe
3dc35cd2
be848051
bce67dd1
3dcbdeaf
3efee8a2
3dd47392
be835c44
3ef119a9
bee7d572
bf079cec
3df7b782
be3d5b1e
3ee7a65f
bf08a914
3eb74f65
be38ec01
3dd3a83d
be7cdd2c
bd40ac3f
3e5255cf
3eaa8794
3e96adbe
3ddf40d7
39292c9c
3da6432e
bedf860b
3d1fedba
3c190dcc
3d242591
be0bbd45
be0e6070
bc837c2c
3b987173
bda4c17f
be0a3c08
be0ea2e0
3e877d3e
bccdee7d
3e988b90
bc5847b8
be53dd56
bd771be4
bd69fbbc
3da078ab
bd7532e0
3e0e674e
3ca24396
3e8d3d4e
3d204a81
3d13bc3a
3e5b5d1a
bd94b11b
3d1c815c
bdcf9200
bd01a359
bdafd794
3e13aed9
bb89d62b
be04965a
be027e21
bda28548
3d03d6b3
bd472ad7
3dcf5d0a
3d021747
bdc329d4
bdbec7db
bd18f532
3ca1583d
bdc99793
bd75f198
bdf8dba7
bd4b344e
3f10932d
be934496
3e048201
bf02cdd4
3d30a315
be28aedc
3e5bf149
3d9e8a2d
bdc8a27a
bece716d
3f149b3f
3edb2ae3
bd3db360
3e8bb016
3e87ac7d
bed98e52
bc5cd316
3ceccecd
3e302011
be3e127e
be1c952a
be2b876c
3d1b8c76
3ea57f85
be28e7e2
be19835f
3e7ccb6c
bd8a8dca
3e7db300
be1ce75e
3e657d1f
3cd2599d
bbce2955
be45cbf4
be5c42d8
3e201d29
3e75493c
bd52a51d
be2fad29
3d74b4d7
3e8e19a8
3e29a01b
be11d0f1
3dfccf38
bebe1692
3ef740be
beced6b3
be8fa92d
3e701ab5
be07c700
bf0a3e73
3e939a77
bd38f647
3de34116
3df9630c
3e3304e4
bdeec9c0
be026490
be1234b0
3f0925fb
3e8223d6
3e950fd6
3d6bc1a0
3e804f6b
be2865cb
bcd9c5ad
bd7d59ee
befea599
be92701a
be979242
3d6f46d4
beecd8da
3e655e83
3da03bdd
bda6b285
bca1f5a9
bdfb4f76
3d968267
3e8f25c6
be48fbc7
be0e8617
3e3acd29
bea0ff52
be6b181e
bea251b1
3eb742d6
be88489e
bea09699
3b06da42
3e7070b5
bdd0def3
3efd6137
3f062154
3e869b8f
3ea0b234
bdfcb3d3
bf9c69f3
3d885766
3e8c6ed3
bdf5ebfe
3e1e223b
be26d6e6
3e3f4ba3
be8ad012
3dbcb722
be881d75
be76b891
be4aaebc
3dd0dab3
3d32fb96
bd5a0e26
3d8f4055
3df3fe19
bd25ef9f
3dd67ef7
be5677b1
3dc9c8c9
3e80efe6
bdbe6532
3d9d8592
3e43545f
3d95c706
bc86c0b3
be92c9d7
3cf08d6f
3ea386a1
3eba364b
bc2cd1a9
3c422901
be36d32e
3e766872
be447172
3e7b01a4
bd7f7e0f
3dcb9da3
bdb2bf98
3df19674
be1ae695
be66f719
bcdb25c7
3ce81767
3eaaa872
3eab34d6
3e7ab62d
3dbb8314
bd1dedff
3eb43b4a
3dcce6ec
beca0e5b
3efc51a5
3d494fd9
be99f02d
be475044
beb38075
bf2284d2
3e18e6eb
3de49103
3d8f0593
be8eb32e
bd16b0ad
3d3ca457
bdfab17e
3de869ef
bdafb9e5
3e06cd97
3c9a1e84
3d562f47
3e7631f9
3c659467
be04a18c
bd5729e8
be391979
3e471c4f
3e562f22
bb07b582
be454929
be31a3f2
be6de758
3caf7213
3de3056c
bea704f2
3e4a9c40
3d9fe011
3e93dab7
3ec222fd
3e813bb8
bd94f32f
be0bfdda
3e4be7b8
3da0da58
be61b820
3b502e8c
bf01bb34
bee869b6
3ae913ea
3e4532b5
3e8119c4
3ed3143e
3e848f40
3d266dbc
3e5059c5
be44bed2
3e1592fe
be9033f5
be97e517
be97df97
3ccee7b3
bdbc78ac
3e3e2aae
3ea0960b
bc92fa5c
3f085a89
beeb8acf
3d485699
be2172d8
be767679
bd3a5f8b
3b51473c
bec32f2d
bd353c7f
3caf1947
be90eaa7
3ae8f9ca
3e4bbe83
3eb728be
3ea88085
3d434f62
3e5923c2
be096159
3e1dd513
bea1dbf1
be271bc6
becd24a0
3cd6e48c
bf0787d9
3e89cd6d
be639af1
3e5cdfc4
3ee36a9e
3abb608a
be6cce09
bef2217b
bd4982d5
3ed85e03
bedb9de7
3e5fda5b
bebd251b
bdf6cd24
be57c7e6
3d9c3ed7
be593474
be99e5f9
3ebcc092
3eda3a5c
be361790
3ea6e516
3c322ed8
3d2f2a22
bea9e5c3
3f1bbda1
be5bb184
be85dc45
bdf1e8e0
bf5366e1
3d8544e9
3e8129d6
be467f28
3caf2482
3d5ea7d1
3f2df93b
3b1dd4c5
bee84a14
3c97f728
3cbf6876
bf296eed
3e39f81f
bda1cd1e
3e04782c
3e52c7be
3e56cc2f
bb40ac01
3e3b3417
3cfb6e02
3eb64173
3eee03dd
bda77818
3c825d42
bdb45f33
bea76059
3efb1f71
3d46580e
be67e5a0
bec8aa6e
be44fa8d
bdf3c8c9
be902cac
3edfe546
3efe4f83
bb16effb
3e993c6b
bb8bdce5
3ef09b59
befc2c84
be27ae93
bd808cb5
bcca7005
bec77bed
be96806f
bcb0aa7d
3ea3e46a
3e5e9501
3e52c449
3e549eaf
bed2a38c
bef8358d
bd920d4f
be07ebe4
bcbe7bbd
3ec29490
3e3c5953
3d1ce705
3f0bf160
be91c183
bdab9939
bd981c7e
bd99560c
be88a8d7
be13e8fd
3dcfac08
bec87e56
3ed66203
3ee127d0
bec8bba4
3e61875d
bdba0e49
bd286754
3eed6020
beaff03b
bc70c42c
be81565c
3e83765e
3def8994
3e8f37e0
3dd4456f
3e4d93b3
3dcd4285
bddb094d
3e9734c9
bd5eeb11
3c436dee
be86587d
bd2df1ba
bed5af26
bd1d00eb
be8f3708
3cefc817
be8a24fc
3e8f0180
3db46169
bdc5e7bc
3d500e5b
3e128812
bd05f8a7
3e3ae345
3beb6b2d
be272516
bdff79c9
beb4a916
3dc1bae6
3e858fa8
be78a27d
3e71d3a7
3dfdb924
be9f58ba
3eaf219e
bf004b85
bee71f5b
be0210aa
bb1c1dca
3e592af4
bdc997ce
3ecd5fd5
3e3bfffd
3e6f0893
3dea863e
3e4c7632
bdf1ec15
bcbff8f8
be26f802
3d800036
bf095878
bca10a71
3d8ebdee
3e8bbd30
3e591327
bdf08252
3e878b2d
be467bb8
3e1aba34
3e91dc62
be15666b
3db87155
be2f8292
3e4c4560
3b670f88
bf0b97f2
3e0491af
be0e01d4
3eb753be
beabdea6
3e4f1a28
beb5f351
3d8e7531
3dc33b88
be53102a
3e1d46d5
3eb5b03f
bda26ce2
3c89322b
3eede178
3e7b7eff
3e94b198
3a24bf00
3e060bf6
be238b1c
bebbb315
be7108af
3c5ea323
3e098808
be2183bc
3e96ff2f
3ea119ce
3dbc6655
3db1d9b0
bddb5fe7
3e07576c
beb3ffe7
bea12ee9
be932a15
be74a0a7
bcc2081e
bad92824
3cf7342c
3e99507d
be8529b4
3db4b133
3e1b68d0
bdec7362
bdbe0def
3d686d95
3e6d2aff
beab2da0
3e2700e7
3eadad0b
3e4c2bf1
3cc3ea5e
befd8777
3e2ff0f6
be8da26b
3db72afc
3f09ec29
be8fd8c0
be788a7a
bc472bb7
bea66ff2
3e7b6b81
3e152008
bde886f3
3e9645b9
3db9297d
beb8fe51
3e7513e5
bc249ae4
3d7e16cf
bded4d81
3ebe08f8
be6828ce
bed630c7
3e5ef47e
3d12c7d0
3e769067
3f114399
be4c8ae7
3d74aa0a
bd087a68
3e8c8516
3ecbcefc
bd38d5d6
bf095b89
bba9f654
bf1e5fc1
3cc44e33
3e208fb7
be129342
be8ffb99
3e8d23f8
3d9bc0f5
bd93517b
bd4a81e1
3d47afd9
bdc80f22
bdbae6dd
3d942f54
bead148b
3f13436a
bdb832b3
bd61e0f3
3eb0ac50
bd8f86af
3d7c011f
bd6fe202
3e155aea
be5538a4
be025991
3e4dcce8
3cbcfd8e
bdb8ebc3
bd5b33f9
bcf0d6f9
be98a1e2
3ef00813
bdd14fee
3c616492
be5f8c6a
bdcd0298
3e213045
3e04fed9
3ec8b1bb
bdf09ff9
3e0d01f7
bdb58702
bea6be06
bd7ab69b
3d9dde3a
bd903479
3ea7a33e
3d136691
3e613c47
be87e9c8
be0faa27
be8b842d
bda924a7
be7c92e4
bd2314f4
bd8a24f6
3df22724
bf37e32d
be73b2dc
3eaa749c
bdce30ce
3f0167ce
bed2af36
beeec2e8
bf2e2c49
3e6c09a9
be071077
3efff6b8
3f24e5ae
bebed308
3d45cf1f
be0bbb93
bdbfc4f9
3e420f85
3f3615cf
bde57a9c
bc9fd715
3eda2a02
be447cf4
3d49da15
3ec6e496
bf22d20c
3f20e246
3e947d81
3db532bf
bf29e0d9
bd89c244
befccdc4
be20df9a
beb9ba1f
3ece4698
bda6a312
3e82dc20
be938d96
be80d7e0
3dadbe2b
3dd42364
3eaee170
3e5fbe13
3c283740
bd731b17
3e86ec92
3ddf09c8
3f693903
3efbba6d
bf07ab19
be9d8d6b
3ed53068
becf4697
bf2394f8
be451ec6
3ea3387d
3d01c63b
3ea7908c
3da05f9a
3e72a13b
3e07fd55
bea4be5f
bdac7a0d
bd815c57
3e5ae661
bd39c12c
3e1d8add
3e785b90
be8fec79
bd9b51b3
befbcc7d
3ce38dc6
bda6b715
3e6fa6c8
3e50bf89
3f040d07
bcdba57f
3e741923
be43b49a
3e417ad4
3e62c72a
be515c14
bdd25a33
3e1fb8ad
be26262b
3e9e3dd5
3d0b0efc
be543908
bea62535
bdb4f546
be4ab080
3e533d66
3ec7bcbf
3e28a885
beb26bdd
bd9018d7
3e6dd719
3ea265e7
bf096a0d
bdae5874
be9fb2de
3ea4da2e
3e8b32bb
bedccac1
3d27180c
3e87277e
be4eb983
3e210157
bec3a7ef
be9487be
be6db2bb
3e81132a
bc9d63ec
be85126e
beb63757
3d4091cf
3e93073e
3dc36f8c
bc36bb25
bea7ef69
bdc9665e
3f0ff858
3e94b94a
be45ae1f
bebadc64
3eee9466
be963bbe
bcbee3a3
3e89e0ec
3dec6f79
3ceeec36
3d0c6a09
bd1698c5
be027be6
3bad97ca
bd24f935
3c5b9cc6
3d383542
3d42e2c0
bd187873
3d8bc2c1
3d540d23
3d90b355
3de91597
bc96c192
3d38d579
3d011929
3c9cd180
3d90a0f5
bdea2d8e
3d63f95d
3b988ad6
bd894b78
3d15dcd9
3ddbaa98
3ccab43a
3db16bf9
bddab67b
3dfd7c64
be28b288
3ef9798c
3e8059ff
3da02a4b
bec05a60
3daedddc
be220461
be5ceeac
bd2c574b
3ea7675a
be8ed849
be67fc48
bee6fd7b
3ebeb85c
bec3f532
beb2b586
beff4ec3
3ea404fe
3d88cb7b
3d1c6f42
3e8c8fc6
3e5f3877
3da9b1d8
3ea241fd
3ecc3708
be0a68fc
3d8f52b7
3e5d3b6b
3d8e1a88
3e08386f
3e1fd70b
3da36454
bcac618e
be726a57
3ac9dc28
3e8baa9b
befbb19a
bf24570b
bf366af1
bdce06c1
bea925e0
3e55085e
be8a306e
3ee580e7
be972c77
3e8808ba
3dbb77ad
ba5f1095
bd15440d
3e259990
be398e8f
3d9ee823
3e86ff27
bc87251a
3e744bbc
3b0b257d
bbcf49ef
be617180
bd02fa48
bc037b39
3d94def4
bdacf445
bd1724bb
be31e984
3e7dbe43
bd402659
3e8cf33e
3e31a92e
bd89b7ff
3e3f91e5
be98872a
3e19911c
3e053336
bea81fd4
bdc5f69b
3cc20004
be1436b4
bddf1ad8
3f480c9b
bea59ee7
3e43e51d
3e29f07a
be816c86
be3393e0
3c81a7e9
3d6ecffe
bebfe3c4
3ea6f65a
beac33d7
3ba7e5fc
bef50f69
3f3f23c4
be093fb5
3df2e00d
be263bf2
3dbd5fc0
bed04b7f
3ea6f2e2
bea4e10e
be956c52
3e3dc5d4
3f06ee9b
bdcb2e7e
3ec5d7cb
3e3d7164
beba4e0c
bf430692
be82c6f1
be16deba
3ea6b838
be1de5e6
3e547b23
3e629c6d
3dd9d5a8
3ef29716
be2b6523
bf049078
bd5c6139
bedc8c29
bd061a5e
bf2e6df1
bdbc7590
3f2376ed
3ea8b9d4
beba8554
3eb700c1
3f436739
3e35207b
3f1f9523
be07e367
3f44ce01
bdef23b2
3e0195d6
3d2642fd
3f1f3271
bf203cc9
bdf197a0
3c82c014
be797ec2
3d8ff38e
beccfb64
bece339a
3f2e772e
3eb852ba
3ef8a5b4
3c43d239
3f08ad9a
3ec14095
bf5f4897
be804580
bef9c2b2
bebeb14e
be2b2a9d
beb1b700
be539306
bdbc91d0
bdca96ab
be384440
bf29431d
be0962c9
be105f83
3dce0547
bc227b83
3d99a868
3d4b87ec
bd9648f6
3e8d344e
3f0c421d
bf33c75b
3e855b8c
bcc0328b
3d82f74c
3e6b78c7
3e3ea617
3e78ca8c
3dd260fb
bd43352d
3ebdf637
3e3bed7c
be149451
3dfc0543
be2c11c8
3e804252
bbf0a196
beae548a
bd51353d
3d4ed422
3d8860e3
bdf9e481
be641efa
bbc3d1c2
bec3085b
3e94c305
3c4aaac3
bdf10512
bcee7931
3eae1d56
3e019eb5
be8e6f44
3eaec1aa
3e77aac8
be4f6c80
3d3d78a2
3d858378
bcc6c113
bc27b764
3e9a0fbb
be304596
3d654673
3d078cf4
be663055
be0ae8ec
be0a50c2
3d3e92fc
bd169bea
3da28b93
bde35c94
bdac7d06
bd86efa8
be09fb21
3ca61505
3daeb1ce
bda05b8b
3e6229b7
bc10d20a
3bcb2adc
3d7bec9e
bc892772
bdf98595
3d811df1
3e7a4026
3d49e9ea
bdf4e0fc
be3223ac
3d9d9161
3e8f1669
3d3b38c3
be9d5770
be4e4506
3e18d4ad
3d9454a5
3e018dc9
3d2b8545
3eb6a648
bd45b218
bde7d662
3e21b8b9
be965e7c
3d0054cc
bd9e4885
be4326c8
bee28d3c
3e59759c
3e0d6265
3e80bd9e
be509664
bdffd785
3e771393
3f1231f0
be934770
bf0a6c55
be244b1f
3e508c84
3d70a797
3f0ddd46
3edb4d9e
be40a294
3e136eab
3d9133b1
bd290429
bde5a333
be79a93e
bf391d4d
3e216fd7
be23093f
bebc9db5
3d92c958
3db69534
bef6d5fd
bd9a6cfe
3e87af49
bce135c3
3f0c89d6
3da3be93
bf3f9b6d
bdbb9dc4
3f006ed5
3e4a730e
bdc9c88d
3d172e0f
be4c9e98
bea97513
be406ffe
3ecda8c3
bf00204f
3cecc26b
be8ee02d
bdf0cf16
3f448660
3eef6c9c
bf075b1f
bf568ca8
3da1048a
3e1a9ec4
3ed27fb1
3f0bda9c
3debb9af
beb58835
3f01bb07
be7f31e0
3c02cce3
3e1e4bde
3e973419
be9a8cdf
3d999e12
3de82528
bb9d7b93
bed85e7e
3e16094f
3d4b141c
3ee4d563
bec5dc70
3e043d4e
3e482037
3cc22aeb
beaf3e6a
3c5599fa
beb4d783
3e87bf00
3e92accf
bf360e58
bdc39448
bdd1c6a3
3eb3a4f2
3ef85fc5
be27b72b
bd26ac73
be9378d1
3db26754
3eb61d80
3e68f0f7
3d45ec8a
39bf95b7
3e0363d2
bdc5bb5d
be80116c
bdeb9508
3e129960
3e4fc01b
3d81bd97
3e2d6872
bc7acb06
bdb0ed3b
3e42aa73
be14205e
bdab5452
3e71afa2
bed8f53e
3c9d577a
bec66703
be167040
3e81b2df
be917816
be96b3c7
be6cea1b
3e643a8f
bea9de35
bd95aa64
3dafea66
bda9b0aa
3d82d268
bde2403a
bd239799
3d1f07ae
be4f05a8
3f016efe
be858cf0
3f4af7d5
3eb80381
3c23e22d
be9abf2d
3e15dd74
be157203
3dd4bc0e
3ea446bf
be4a3b51
3d86b1d8
be2b662e
3e83fbca
3ecf538e
be0dd172
bda7f395
3e46111c
be72c102
3e2cb409
3d3c8d8e
be063e5b
3dd3e4c4
be0362c1
bcdebd23
bdef07cc
3e3a2f97
3dc0be36
bec8198f
3e827330
3d475c8f
bbe539f4
bf327206
3e9819fc
be9782eb
3f07de54
bda1a74b
bee68bc7
3df25993
bb0e66b3
3ca2f1c5
3b79d8b9
3ebedb25
be7111fb
bcecc106
bda0597c
be1e5fde
bcfec749
3dd5104e
3d4fcf97
bd55ddeb
3e039ac2
be06419c
3e60392e
be0f4e3d
3e031a06
be7c377a
3dce1c97
3db2beea
bdf7cebf
be0e8d33
3cec5601
3d175521
3e662dd0
3df9c5ed
